{
  "version": "1.0",
  "truncation": null,
  "padding": null,
  "added_tokens": [
    {
      "id": 0,
      "content": "[PAD]",
      "single_word": false,
      "lstrip": false,
      "rstrip": false,
      "normalized": false,
      "special": true
    },
    {
      "id": 1,
      "content": "[UNK]",
      "single_word": false,
      "lstrip": false,
      "rstrip": false,
      "normalized": false,
      "special": true
    },
    {
      "id": 2,
      "content": "[BOS]",
      "single_word": false,
      "lstrip": false,
      "rstrip": false,
      "normalized": false,
      "special": true
    },
    {
      "id": 3,
      "content": "[EOS]",
      "single_word": false,
      "lstrip": false,
      "rstrip": false,
      "normalized": false,
      "special": true
    }
  ],
  "normalizer": {
    "type": "Lowercase"
  },
  "pre_tokenizer": {
    "type": "Whitespace"
  },
  "post_processor": {
    "type": "TemplateProcessing",
    "single": [
      {
        "Sequence": {
          "id": "A",
          "type_id": 0
        }
      }
    ],
    "pair": [
      {
        "Sequence": {
          "id": "A",
          "type_id": 0
        }
      },
      {
        "Sequence": {
          "id": "B",
          "type_id": 1
        }
      }
    ],
    "special_tokens": {}
  },
  "decoder": {
    "type": "BPEDecoder",
    "suffix": "</w>"
  },
  "model": {
    "type": "BPE",
    "dropout": null,
    "unk_token": "[UNK]",
    "continuing_subword_prefix": null,
    "end_of_word_suffix": "</w>",
    "fuse_unk": false,
    "byte_fallback": false,
    "ignore_merges": false,
    "vocab": {
      "[PAD]": 0,
      "[UNK]": 1,
      "[BOS]": 2,
      "[EOS]": 3,
      "!": 4,
      "(": 5,
      ")": 6,
      "*": 7,
      ",": 8,
      "-": 9,
      ".": 10,
      "/": 11,
      "0": 12,
      "1": 13,
      "2": 14,
      "4": 15,
      "5": 16,
      "6": 17,
      "7": 18,
      "9": 19,
      ":": 20,
      ";": 21,
      "?": 22,
      "a": 23,
      "b": 24,
      "d": 25,
      "e": 26,
      "g": 27,
      "h": 28,
      "i": 29,
      "k": 30,
      "l": 31,
      "m": 32,
      "n": 33,
      "o": 34,
      "r": 35,
      "s": 36,
      "t": 37,
      "v": 38,
      "w": 39,
      "y": 40,
      "©": 41,
      "«": 42,
      "»": 43,
      "́": 44,
      "а": 45,
      "б": 46,
      "в": 47,
      "г": 48,
      "д": 49,
      "е": 50,
      "ж": 51,
      "з": 52,
      "и": 53,
      "й": 54,
      "к": 55,
      "л": 56,
      "м": 57,
      "н": 58,
      "о": 59,
      "п": 60,
      "р": 61,
      "с": 62,
      "т": 63,
      "у": 64,
      "ф": 65,
      "х": 66,
      "ц": 67,
      "ч": 68,
      "ш": 69,
      "щ": 70,
      "ъ": 71,
      "ы": 72,
      "ь": 73,
      "э": 74,
      "ю": 75,
      "я": 76,
      "ё": 77,
      "‑": 78,
      "–": 79,
      "—": 80,
      "’": 81,
      "“": 82,
      "„": 83,
      "…": 84,
      "к</w>": 85,
      "л</w>": 86,
      "о</w>": 87,
      "м</w>": 88,
      "е</w>": 89,
      "т</w>": 90,
      "я</w>": 91,
      "у</w>": 92,
      "а</w>": 93,
      "и</w>": 94,
      "ь</w>": 95,
      "ы</w>": 96,
      "й</w>": 97,
      "н</w>": 98,
      "х</w>": 99,
      "в</w>": 100,
      "ю</w>": 101,
      "р</w>": 102,
      "ж</w>": 103,
      "д</w>": 104,
      "б</w>": 105,
      "с</w>": 106,
      "ф</w>": 107,
      "э</w>": 108,
      "п</w>": 109,
      "7</w>": 110,
      "*</w>": 111,
      "г</w>": 112,
      "ц</w>": 113,
      "з</w>": 114,
      "ч</w>": 115,
      "a</w>": 116,
      "/</w>": 117,
      "ш</w>": 118,
      "d</w>": 119,
      "y</w>": 120,
      "щ</w>": 121,
      "(</w>": 122,
      "’</w>": 123,
      "?</w>": 124,
      "—</w>": 125,
      ",</w>": 126,
      "!</w>": 127,
      ";</w>": 128,
      "«</w>": 129,
      ".</w>": 130,
      "s</w>": 131,
      "t</w>": 132,
      "6</w>": 133,
      "4</w>": 134,
      "-</w>": 135,
      "»</w>": 136,
      "r</w>": 137,
      "n</w>": 138,
      "‑</w>": 139,
      "©</w>": 140,
      "…</w>": 141,
      "9</w>": 142,
      ")</w>": 143,
      ":</w>": 144,
      "„</w>": 145,
      "–</w>": 146,
      "ё</w>": 147,
      "ст": 148,
      "по": 149,
      "ра": 150,
      "ро": 151,
      "на": 152,
      "ер": 153,
      "ко": 154,
      "ен": 155,
      "во": 156,
      "то": 157,
      "ал": 158,
      "но": 159,
      "ка": 160,
      "ни": 161,
      "на</w>": 162,
      "не": 163,
      "не</w>": 164,
      "то</w>": 165,
      "ся</w>": 166,
      "ру": 167,
      "ре": 168,
      "ри": 169,
      "мо": 170,
      "но</w>": 171,
      "за": 172,
      "те": 173,
      "ть</w>": 174,
      "ла": 175,
      "ло": 176,
      "го</w>": 177,
      "до": 178,
      "ле": 179,
      "ва": 180,
      "де": 181,
      "го": 182,
      "сь</w>": 183,
      "ну": 184,
      "ви": 185,
      "ны": 186,
      "ли": 187,
      "ли</w>": 188,
      "ль": 189,
      "та": 190,
      "про": 191,
      "да": 192,
      "ди": 193,
      "со": 194,
      "ве": 195,
      "бо": 196,
      "ме": 197,
      "да</w>": 198,
      "вы": 199,
      "ла</w>": 200,
      "что</w>": 201,
      "ми</w>": 202,
      "хо": 203,
      "ти": 204,
      "при": 205,
      "че": 206,
      "се": 207,
      "ма": 208,
      "ду": 209,
      "ере": 210,
      "ени": 211,
      "бы": 212,
      "от": 213,
      "он</w>": 214,
      "сто": 215,
      "ста": 216,
      "бе": 217,
      "жи": 218,
      "вер": 219,
      "ты</w>": 220,
      "ши": 221,
      "ча": 222,
      "об": 223,
      "лся</w>": 224,
      "ки": 225,
      "ры": 226,
      "же</w>": 227,
      "чи": 228,
      "си": 229,
      "бу": 230,
      "ля": 231,
      "раз": 232,
      "его</w>": 233,
      "ки</w>": 234,
      "вс": 235,
      "ка</w>": 236,
      "ни</w>": 237,
      "са": 238,
      "ко</w>": 239,
      "мен": 240,
      "лу": 241,
      "му</w>": 242,
      "как</w>": 243,
      "тся</w>": 244,
      "ло</w>": 245,
      "за</w>": 246,
      "же": 247,
      "па": 248,
      "ше": 249,
      "пре": 250,
      "щи": 251,
      "ть": 252,
      "га": 253,
      "зна": 254,
      "ств": 255,
      "ска": 256,
      "пе": 257,
      "бы</w>": 258,
      "ря": 259,
      "ня": 260,
      "ные</w>": 261,
      "вал": 262,
      "би": 263,
      "ку": 264,
      "пер": 265,
      "тру": 266,
      "жа": 267,
      "ми": 268,
      "сть</w>": 269,
      "ша": 270,
      "под": 271,
      "ный</w>": 272,
      "ет</w>": 273,
      "ны</w>": 274,
      "из</w>": 275,
      "все</w>": 276,
      "по</w>": 277,
      "шь</w>": 278,
      "это</w>": 279,
      "пу": 280,
      "пере": 281,
      "гла": 282,
      "ной</w>": 283,
      "пи": 284,
      "ско": 285,
      "су": 286,
      "ва</w>": 287,
      "она</w>": 288,
      "мы</w>": 289,
      "фи": 290,
      "рас": 291,
      "от</w>": 292,
      "нул</w>": 293,
      "трул": 294,
      "их</w>": 295,
      "лы": 296,
      "мер": 297,
      "пра": 298,
      "гда</w>": 299,
      "ала</w>": 300,
      "ще</w>": 301,
      "ться</w>": 302,
      "лько</w>": 303,
      "ти</w>": 304,
      "ра</w>": 305,
      "вз": 306,
      "лен": 307,
      "из": 308,
      "те</w>": 309,
      "тер": 310,
      "вы</w>": 311,
      "ку</w>": 312,
      "аль": 313,
      "лю": 314,
      "ты": 315,
      "воз": 316,
      "ба": 317,
      "кото": 318,
      "ного</w>": 319,
      "уди": 320,
      "кры": 321,
      "ль</w>": 322,
      "лись</w>": 323,
      "они</w>": 324,
      "сти</w>": 325,
      "та</w>": 326,
      "тре": 327,
      "ение</w>": 328,
      "ем</w>": 329,
      "трулл</w>": 330,
      "бра": 331,
      "ту": 332,
      "пос": 333,
      "жд": 334,
      "кро": 335,
      "теб": 336,
      "сво": 337,
      "тель": 338,
      "так</w>": 339,
      "сло": 340,
      "ну</w>": 341,
      "нет</w>": 342,
      "гля": 343,
      "али</w>": 344,
      "ля</w>": 345,
      "лась</w>": 346,
      "ше</w>": 347,
      "ных</w>": 348,
      "мы": 349,
      "вши": 350,
      "жно</w>": 351,
      "эду": 352,
      "эдур</w>": 353,
      "коро": 354,
      "том</w>": 355,
      "еще</w>": 356,
      "все": 357,
      "голо": 358,
      "ха": 359,
      "ное</w>": 360,
      "ги": 361,
      "сэ": 362,
      "бри": 363,
      "ей</w>": 364,
      "до</w>": 365,
      "од": 366,
      "наа": 367,
      "сли</w>": 368,
      "удинаа": 369,
      "дру": 370,
      "рула": 371,
      "ди</w>": 372,
      "сти": 373,
      "ная</w>": 374,
      "ения</w>": 375,
      "ным</w>": 376,
      "нулся</w>": 377,
      "дол": 378,
      "стра": 379,
      "ее</w>": 380,
      "только</w>": 381,
      "гово": 382,
      "кой</w>": 383,
      "когда</w>": 384,
      "жен": 385,
      "слу": 386,
      "му": 387,
      "га</w>": 388,
      "что": 389,
      "де</w>": 390,
      "чу": 391,
      "тего": 392,
      "меня</w>": 393,
      "ск": 394,
      "мне</w>": 395,
      "во</w>": 396,
      "лиц": 397,
      "кто</w>": 398,
      "стоя": 399,
      "удинаас</w>": 400,
      "дет</w>": 401,
      "если</w>": 402,
      "чем</w>": 403,
      "дом</w>": 404,
      "им": 405,
      "боль": 406,
      "оста": 407,
      "ется</w>": 408,
      "сказа": 409,
      "вно</w>": 410,
      "сле": 411,
      "кон": 412,
      "пле": 413,
      "сту": 414,
      "ду</w>": 415,
      "это": 416,
      "ри</w>": 417,
      "пол": 418,
      "ма</w>": 419,
      "вал</w>": 420,
      "ют</w>": 421,
      "вой</w>": 422,
      "чтобы</w>": 423,
      "гу": 424,
      "виде": 425,
      "ву": 426,
      "тегол</w>": 427,
      "ком</w>": 428,
      "летер": 429,
      "было</w>": 430,
      "тя": 431,
      "ние</w>": 432,
      "ался</w>": 433,
      "вать</w>": 434,
      "чего</w>": 435,
      "пы": 436,
      "ци": 437,
      "са</w>": 438,
      "которы": 439,
      "рен</w>": 440,
      "вре": 441,
      "али": 442,
      "ью</w>": 443,
      "це": 444,
      "сте</w>": 445,
      "спо": 446,
      "ке</w>": 447,
      "сэрен</w>": 448,
      "брис</w>": 449,
      "чен": 450,
      "пред": 451,
      "бро": 452,
      "вед": 453,
      "шел</w>": 454,
      "нима": 455,
      "буг": 456,
      "смо": 457,
      "уже</w>": 458,
      "шу": 459,
      "ков</w>": 460,
      "сторо": 461,
      "ща": 462,
      "кру": 463,
      "ющи": 464,
      "отве": 465,
      "рулад</w>": 466,
      "ле</w>": 467,
      "ном</w>": 468,
      "чно</w>": 469,
      "подо": 470,
      "тебя</w>": 471,
      "дела": 472,
      "ост": 473,
      "ней</w>": 474,
      "зо": 475,
      "ник</w>": 476,
      "ца</w>": 477,
      "ство</w>": 478,
      "для</w>": 479,
      "ще": 480,
      "лед": 481,
      "себ": 482,
      "под</w>": 483,
      "сказал</w>": 484,
      "дер": 485,
      "лось</w>": 486,
      "дума": 487,
      "перед</w>": 488,
      "тво": 489,
      "ную</w>": 490,
      "ствен": 491,
      "ся": 492,
      "зе": 493,
      "сто</w>": 494,
      "гу</w>": 495,
      "хан": 496,
      "тепер": 497,
      "взгля": 498,
      "теперь</w>": 499,
      "мя</w>": 500,
      "был</w>": 501,
      "тро": 502,
      "говори": 503,
      "бугг</w>": 504,
      "вст": 505,
      "ало": 506,
      "или</w>": 507,
      "кров": 508,
      "ги</w>": 509,
      "ешь</w>": 510,
      "вя": 511,
      "над": 512,
      "глаза</w>": 513,
      "кра": 514,
      "тор</w>": 515,
      "пера": 516,
      "фир</w>": 517,
      "импера": 518,
      "ды": 519,
      "ре</w>": 520,
      "оди": 521,
      "тил</w>": 522,
      "ца": 523,
      "ды</w>": 524,
      "ходи": 525,
      "сно": 526,
      "пло": 527,
      "кие</w>": 528,
      "само": 529,
      "гро": 530,
      "ала": 531,
      "може": 532,
      "ему</w>": 533,
      "ис": 534,
      "тен": 535,
      "бед": 536,
      "хва": 537,
      "кого</w>": 538,
      "тебе</w>": 539,
      "нас</w>": 540,
      "ру</w>": 541,
      "ались</w>": 542,
      "заме": 543,
      "вая</w>": 544,
      "без": 545,
      "мерт": 546,
      "вои": 547,
      "вот</w>": 548,
      "летери": 549,
      "где</w>": 550,
      "пя": 551,
      "можно</w>": 552,
      "ханна": 553,
      "зи": 554,
      "хра": 555,
      "моса": 556,
      "него</w>": 557,
      "повер": 558,
      "пря": 559,
      "вра": 560,
      "кт</w>": 561,
      "ту</w>": 562,
      "хал": 563,
      "ния</w>": 564,
      "чере": 565,
      "вля": 566,
      "ками</w>": 567,
      "сер": 568,
      "чер": 569,
      "там</w>": 570,
      "кий</w>": 571,
      "стран": 572,
      "ность</w>": 573,
      "мо</w>": 574,
      "даже</w>": 575,
      "вый</w>": 576,
      "чал</w>": 577,
      "есть</w>": 578,
      "тисте</w>": 579,
      "ными</w>": 580,
      "ничего</w>": 581,
      "сы": 582,
      "нам</w>": 583,
      "летерий": 584,
      "пла": 585,
      "были</w>": 586,
      "бли": 587,
      "зы": 588,
      "им</w>": 589,
      "зем": 590,
      "подня": 591,
      "нач": 592,
      "ве</w>": 593,
      "зде": 594,
      "ня</w>": 595,
      "ких</w>": 596,
      "жал</w>": 597,
      "бой</w>": 598,
      "нула</w>": 599,
      "вали</w>": 600,
      "дно</w>": 601,
      "нее</w>": 602,
      "шен": 603,
      "ало</w>": 604,
      "них</w>": 605,
      "здесь</w>": 606,
      "фа": 607,
      "потом</w>": 608,
      "ры</w>": 609,
      "женщи": 610,
      "горо": 611,
      "уби": 612,
      "ро</w>": 613,
      "тельно</w>": 614,
      "спе": 615,
      "прави": 616,
      "сте": 617,
      "короле": 618,
      "полу": 619,
      "поня": 620,
      "мол": 621,
      "будет</w>": 622,
      "проти": 623,
      "дви": 624,
      "це</w>": 625,
      "тов</w>": 626,
      "алось</w>": 627,
      "цы</w>": 628,
      "со</w>": 629,
      "све": 630,
      "уда": 631,
      "ом</w>": 632,
      "ности</w>": 633,
      "сты": 634,
      "того</w>": 635,
      "хоро": 636,
      "словно</w>": 637,
      "шур": 638,
      "ясь</w>": 639,
      "кое</w>": 640,
      "коне": 641,
      "хот": 642,
      "гру": 643,
      "поло": 644,
      "кол": 645,
      "соб": 646,
      "кри": 647,
      "бор": 648,
      "время</w>": 649,
      "кви": 650,
      "нов": 651,
      "дас</w>": 652,
      "меч</w>": 653,
      "которо": 654,
      "шурк</w>": 655,
      "бедди": 656,
      "сей": 657,
      "вшись</w>": 658,
      "мой</w>": 659,
      "доро": 660,
      "один</w>": 661,
      "сдела": 662,
      "вну": 663,
      "дь</w>": 664,
      "дере": 665,
      "видел</w>": 666,
      "стви": 667,
      "пока</w>": 668,
      "обра": 669,
      "нови": 670,
      "дал</w>": 671,
      "сил</w>": 672,
      "ву</w>": 673,
      "глу": 674,
      "спи": 675,
      "ства</w>": 676,
      "тно</w>": 677,
      "стро": 678,
      "может</w>": 679,
      "слы": 680,
      "ним</w>": 681,
      "три</w>": 682,
      "але": 683,
      "больше</w>": 684,
      "дя": 685,
      "чь</w>": 686,
      "тра": 687,
      "вни": 688,
      "нга": 689,
      "кор": 690,
      "тая</w>": 691,
      "вала</w>": 692,
      "поз": 693,
      "ча</w>": 694,
      "стен": 695,
      "кая</w>": 696,
      "чему</w>": 697,
      "гра": 698,
      "лишь</w>": 699,
      "стави": 700,
      "каз": 701,
      "ин": 702,
      "нь</w>": 703,
      "смер": 704,
      "была</w>": 705,
      "час</w>": 706,
      "трел</w>": 707,
      "сэнга": 708,
      "себя</w>": 709,
      "зя": 710,
      "ор": 711,
      "нулась</w>": 712,
      "снова</w>": 713,
      "сол": 714,
      "поя": 715,
      "похо": 716,
      "халл</w>": 717,
      "сейчас</w>": 718,
      "чи</w>": 719,
      "пото": 720,
      "ружи": 721,
      "кре": 722,
      "жу</w>": 723,
      "ство": 724,
      "раб": 725,
      "пусти": 726,
      "одна": 727,
      "хи": 728,
      "нами</w>": 729,
      "просто</w>": 730,
      "тут</w>": 731,
      "гер": 732,
      "жиз": 733,
      "тья</w>": 734,
      "дво": 735,
      "мно": 736,
      "хозя": 737,
      "ханнан</w>": 738,
      "юсь</w>": 739,
      "сколько</w>": 740,
      "финад": 741,
      "мосаг</w>": 742,
      "раз</w>": 743,
      "мя": 744,
      "вол": 745,
      "дей": 746,
      "мыс": 747,
      "король</w>": 748,
      "дя</w>": 749,
      "улы": 750,
      "помо": 751,
      "демо": 752,
      "йся</w>": 753,
      "обо": 754,
      "нужно</w>": 755,
      "вые</w>": 756,
      "лове": 757,
      "беддикт</w>": 758,
      "колду": 759,
      "поч": 760,
      "лете": 761,
      "посмо": 762,
      "жду</w>": 763,
      "сме": 764,
      "лу</w>": 765,
      "ким</w>": 766,
      "император</w>": 767,
      "щу": 768,
      "види": 769,
      "тал</w>": 770,
      "чу</w>": 771,
      "вой": 772,
      "быть</w>": 773,
      "тор": 774,
      "улыб": 775,
      "уме": 776,
      "тот</w>": 777,
      "кив": 778,
      "шли</w>": 779,
      "ями</w>": 780,
      "который</w>": 781,
      "кля": 782,
      "понима": 783,
      "тем</w>": 784,
      "приз": 785,
      "буру": 786,
      "значи": 787,
      "над</w>": 788,
      "дать</w>": 789,
      "мед": 790,
      "оби": 791,
      "стью</w>": 792,
      "нео": 793,
      "тель</w>": 794,
      "счи": 795,
      "ются</w>": 796,
      "гов</w>": 797,
      "взгляд</w>": 798,
      "почему</w>": 799,
      "рядом</w>": 800,
      "ведь": 801,
      "однако</w>": 802,
      "ин</w>": 803,
      "кло": 804,
      "три": 805,
      "ром</w>": 806,
      "куда</w>": 807,
      "спро": 808,
      "уб": 809,
      "руки</w>": 810,
      "прав": 811,
      "через</w>": 812,
      "ши</w>": 813,
      "гото": 814,
      "челове": 815,
      "дут</w>": 816,
      "хотя</w>": 817,
      "бла": 818,
      "ден": 819,
      "тол": 820,
      "ний</w>": 821,
      "высо": 822,
      "ству": 823,
      "послед": 824,
      "сла": 825,
      "жен</w>": 826,
      "сре": 827,
      "всем</w>": 828,
      "хорош": 829,
      "тоже</w>": 830,
      "ника</w>": 831,
      "дар": 832,
      "глаза": 833,
      "долж": 834,
      "встре": 835,
      "лицо</w>": 836,
      "шла</w>": 837,
      "ках</w>": 838,
      "льз": 839,
      "альные</w>": 840,
      "останови": 841,
      "финадд</w>": 842,
      "акви": 843,
      "вперед</w>": 844,
      "ья</w>": 845,
      "рабо": 846,
      "вает</w>": 847,
      "алась</w>": 848,
      "геру": 849,
      "той</w>": 850,
      "ман": 851,
      "объ": 852,
      "чень</w>": 853,
      "себе</w>": 854,
      "нес": 855,
      "призра": 856,
      "ен</w>": 857,
      "еди": 858,
      "имен": 859,
      "хнул</w>": 860,
      "этом</w>": 861,
      "знаю</w>": 862,
      "дра": 863,
      "лю</w>": 864,
      "очень</w>": 865,
      "надо</w>": 866,
      "нов</w>": 867,
      "вали": 868,
      "перна": 869,
      "друго": 870,
      "жи</w>": 871,
      "много</w>": 872,
      "спа": 873,
      "ста</w>": 874,
      "нен": 875,
      "хоте": 876,
      "шей</w>": 877,
      "этого</w>": 878,
      "вла": 879,
      "дро": 880,
      "рен": 881,
      "сы</w>": 882,
      "ум": 883,
      "хорошо</w>": 884,
      "име": 885,
      "брат</w>": 886,
      "бер": 887,
      "пли": 888,
      "лей</w>": 889,
      "ведь</w>": 890,
      "шего</w>": 891,
      "суще": 892,
      "всех</w>": 893,
      "кровь</w>": 894,
      "бере": 895,
      "шка</w>": 896,
      "без</w>": 897,
      "сказ": 898,
      "рулада</w>": 899,
      "руку</w>": 900,
      "мор": 901,
      "зад</w>": 902,
      "нуть</w>": 903,
      "май": 904,
      "бира": 905,
      "этот</w>": 906,
      "жение</w>": 907,
      "лы</w>": 908,
      "эти": 909,
      "раб</w>": 910,
      "вых</w>": 911,
      "сам</w>": 912,
      "ой</w>": 913,
      "пока": 914,
      "деся": 915,
      "гор": 916,
      "голову</w>": 917,
      "ступ": 918,
      "значит</w>": 919,
      "майен</w>": 920,
      "цен": 921,
      "точно</w>": 922,
      "хоче": 923,
      "ар": 924,
      "ленно</w>": 925,
      "сэнгар</w>": 926,
      "нере": 927,
      "ье</w>": 928,
      "яс": 929,
      "бина": 930,
      "свобо": 931,
      "почти</w>": 932,
      "воро": 933,
      "ступи": 934,
      "хвати": 935,
      "ев</w>": 936,
      "ст</w>": 937,
      "вас</w>": 938,
      "чами</w>": 939,
      "луч": 940,
      "времен": 941,
      "хозяин</w>": 942,
      "стре": 943,
      "лег": 944,
      "ением</w>": 945,
      "возможно</w>": 946,
      "аквитор</w>": 947,
      "оружи": 948,
      "тогда</w>": 949,
      "произ": 950,
      "между</w>": 951,
      "чувст": 952,
      "вл": 953,
      "жу": 954,
      "кнул</w>": 955,
      "дел</w>": 956,
      "круг</w>": 957,
      "бо</w>": 958,
      "лиш": 959,
      "жил</w>": 960,
      "вался</w>": 961,
      "случа": 962,
      "ге</w>": 963,
      "ква": 964,
      "ме</w>": 965,
      "тки</w>": 966,
      "друг</w>": 967,
      "потер": 968,
      "рез": 969,
      "образ": 970,
      "жела": 971,
      "кивнул</w>": 972,
      "нии</w>": 973,
      "вам</w>": 974,
      "дан": 975,
      "первый</w>": 976,
      "мир</w>": 977,
      "всего</w>": 978,
      "щен": 979,
      "фигу": 980,
      "два</w>": 981,
      "ющ": 982,
      "ком": 983,
      "вос": 984,
      "ному</w>": 985,
      "боле": 986,
      "будь</w>": 987,
      "серд": 988,
      "крас": 989,
      "ужа": 990,
      "фор": 991,
      "стал</w>": 992,
      "споко": 993,
      "пру": 994,
      "ша</w>": 995,
      "нах": 996,
      "вокруг</w>": 997,
      "дем</w>": 998,
      "ении</w>": 999,
      "тые</w>": 1000,
      "храни": 1001,
      "йти</w>": 1002,
      "свя": 1003,
      "сом": 1004,
      "вет": 1005,
      "тыся": 1006,
      "дерев": 1007,
      "вле": 1008,
      "двер": 1009,
      "шу</w>": 1010,
      "вели": 1011,
      "месте</w>": 1012,
      "ений</w>": 1013,
      "собствен": 1014,
      "дня</w>": 1015,
      "камен": 1016,
      "сила</w>": 1017,
      "клю": 1018,
      "ню</w>": 1019,
      "уру": 1020,
      "стя": 1021,
      "какой</w>": 1022,
      "плечами</w>": 1023,
      "императо": 1024,
      "блед": 1025,
      "рой</w>": 1026,
      "воль": 1027,
      "чес": 1028,
      "тени</w>": 1029,
      "дь": 1030,
      "жа</w>": 1031,
      "нулись</w>": 1032,
      "любо": 1033,
      "головой</w>": 1034,
      "сказала</w>": 1035,
      "сю": 1036,
      "коп": 1037,
      "ников</w>": 1038,
      "нем</w>": 1039,
      "дело</w>": 1040,
      "которые</w>": 1041,
      "похоже</w>": 1042,
      "ведьма</w>": 1043,
      "жал": 1044,
      "ван": 1045,
      "солда": 1046,
      "бурук</w>": 1047,
      "бле": 1048,
      "вере": 1049,
      "ете</w>": 1050,
      "пом": 1051,
      "моро": 1052,
      "дух</w>": 1053,
      "бес": 1054,
      "баш": 1055,
      "сторону</w>": 1056,
      "дале": 1057,
      "мся</w>": 1058,
      "коло": 1059,
      "нил</w>": 1060,
      "повернулся</w>": 1061,
      "дак</w>": 1062,
      "успе": 1063,
      "кана": 1064,
      "нув</w>": 1065,
      "нули</w>": 1066,
      "среди</w>": 1067,
      "даль": 1068,
      "дву": 1069,
      "су</w>": 1070,
      "рис": 1071,
      "откры": 1072,
      "шан": 1073,
      "пыт": 1074,
      "пернатая</w>": 1075,
      "сюда</w>": 1076,
      "побе": 1077,
      "нес</w>": 1078,
      "ответил</w>": 1079,
      "колдун</w>": 1080,
      "вто": 1081,
      "дре": 1082,
      "ься</w>": 1083,
      "покры": 1084,
      "собой</w>": 1085,
      "прин": 1086,
      "изве": 1087,
      "короля</w>": 1088,
      "цев</w>": 1089,
      "урут</w>": 1090,
      "внима": 1091,
      "при</w>": 1092,
      "тем": 1093,
      "госу": 1094,
      "продол": 1095,
      "седа</w>": 1096,
      "ших</w>": 1097,
      "педак</w>": 1098,
      "всегда</w>": 1099,
      "посмотрел</w>": 1100,
      "назад</w>": 1101,
      "мое</w>": 1102,
      "сом</w>": 1103,
      "исто": 1104,
      "ьше</w>": 1105,
      "ними</w>": 1106,
      "куру</w>": 1107,
      "стоял</w>": 1108,
      "ото": 1109,
      "слиш": 1110,
      "удо": 1111,
      "тело</w>": 1112,
      "тить</w>": 1113,
      "золо": 1114,
      "медленно</w>": 1115,
      "государ": 1116,
      "слишком</w>": 1117,
      "ит</w>": 1118,
      "че</w>": 1119,
      "пой": 1120,
      "наде": 1121,
      "неза": 1122,
      "слова</w>": 1123,
      "аль</w>": 1124,
      "реши": 1125,
      "тели</w>": 1126,
      "лом</w>": 1127,
      "прия": 1128,
      "жить</w>": 1129,
      "други": 1130,
      "следо": 1131,
      "летери</w>": 1132,
      "щая</w>": 1133,
      "слыша": 1134,
      "дли": 1135,
      "улиц": 1136,
      "рая</w>": 1137,
      "ноч": 1138,
      "каза": 1139,
      "глав": 1140,
      "стены</w>": 1141,
      "герун</w>": 1142,
      "бинадас</w>": 1143,
      "смыс": 1144,
      "ха</w>": 1145,
      "кам": 1146,
      "реб": 1147,
      "доста": 1148,
      "лез": 1149,
      "трулла</w>": 1150,
      "вздо": 1151,
      "тый</w>": 1152,
      "чуть</w>": 1153,
      "ющий</w>": 1154,
      "лала</w>": 1155,
      "ров</w>": 1156,
      "воло": 1157,
      "ника": 1158,
      "ники</w>": 1159,
      "нева": 1160,
      "чув": 1161,
      "скло": 1162,
      "броси": 1163,
      "мг": 1164,
      "хо</w>": 1165,
      "ров": 1166,
      "вопро": 1167,
      "никто</w>": 1168,
      "лага": 1169,
      "место</w>": 1170,
      "ший</w>": 1171,
      "обер": 1172,
      "больш": 1173,
      "держи": 1174,
      "гром": 1175,
      "охра": 1176,
      "цо": 1177,
      "кубы": 1178,
      "глаз</w>": 1179,
      "прямо</w>": 1180,
      "плен": 1181,
      "твер": 1182,
      "наб": 1183,
      "неу": 1184,
      "давно</w>": 1185,
      "мас": 1186,
      "этой</w>": 1187,
      "вую</w>": 1188,
      "стороны</w>": 1189,
      "ющие</w>": 1190,
      "гнул</w>": 1191,
      "жда": 1192,
      "зву": 1193,
      "об</w>": 1194,
      "жать</w>": 1195,
      "лый</w>": 1196,
      "королевс": 1197,
      "конец</w>": 1198,
      "оружие</w>": 1199,
      "более</w>": 1200,
      "прутья</w>": 1201,
      "извест": 1202,
      "мгнов": 1203,
      "гря": 1204,
      "ях</w>": 1205,
      "стальные</w>": 1206,
      "колен": 1207,
      "вого</w>": 1208,
      "ноги</w>": 1209,
      "знал</w>": 1210,
      "именно</w>": 1211,
      "государь</w>": 1212,
      "ан": 1213,
      "свер": 1214,
      "шься</w>": 1215,
      "наро": 1216,
      "нару": 1217,
      "мог</w>": 1218,
      "моло": 1219,
      "ваться</w>": 1220,
      "холо": 1221,
      "чаро": 1222,
      "ряд</w>": 1223,
      "кую</w>": 1224,
      "следу": 1225,
      "арми": 1226,
      "вше": 1227,
      "вил</w>": 1228,
      "дить</w>": 1229,
      "сов</w>": 1230,
      "прибли": 1231,
      "маги": 1232,
      "рази": 1233,
      "знать</w>": 1234,
      "взя": 1235,
      "мури": 1236,
      "тяже": 1237,
      "конечно</w>": 1238,
      "сделал</w>": 1239,
      "появи": 1240,
      "спросил</w>": 1241,
      "благо": 1242,
      "жения</w>": 1243,
      "тере": 1244,
      "чный</w>": 1245,
      "согла": 1246,
      "быст": 1247,
      "разве</w>": 1248,
      "смотре": 1249,
      "смотрел</w>": 1250,
      "лан": 1251,
      "вел</w>": 1252,
      "чил</w>": 1253,
      "вало</w>": 1254,
      "ции</w>": 1255,
      "подошел</w>": 1256,
      "говорил</w>": 1257,
      "лучше</w>": 1258,
      "случае</w>": 1259,
      "шанд</w>": 1260,
      "кли": 1261,
      "скры": 1262,
      "уни": 1263,
      "эти</w>": 1264,
      "вами</w>": 1265,
      "совсем</w>": 1266,
      "вернулся</w>": 1267,
      "разуме": 1268,
      "брата</w>": 1269,
      "чувство": 1270,
      "кораб": 1271,
      "ходя": 1272,
      "тила</w>": 1273,
      "наблю": 1274,
      "гих</w>": 1275,
      "паль": 1276,
      "ям</w>": 1277,
      "навер": 1278,
      "мог": 1279,
      "вид": 1280,
      "гах</w>": 1281,
      "бери": 1282,
      "нахмури": 1283,
      "кубышка</w>": 1284,
      "мени": 1285,
      "стей</w>": 1286,
      "побор": 1287,
      "низ": 1288,
      "крова": 1289,
      "заметил</w>": 1290,
      "евну": 1291,
      "спра": 1292,
      "нибудь</w>": 1293,
      "вар": 1294,
      "вифа": 1295,
      "совер": 1296,
      "меч": 1297,
      "вым</w>": 1298,
      "вифал</w>": 1299,
      "ба</w>": 1300,
      "гло": 1301,
      "йте</w>": 1302,
      "нные</w>": 1303,
      "хи</w>": 1304,
      "носи": 1305,
      "никогда</w>": 1306,
      "моне": 1307,
      "ению</w>": 1308,
      "шая</w>": 1309,
      "ской</w>": 1310,
      "вались</w>": 1311,
      "потеря": 1312,
      "мра": 1313,
      "па</w>": 1314,
      "тр": 1315,
      "кому</w>": 1316,
      "ница</w>": 1317,
      "могу</w>": 1318,
      "дой</w>": 1319,
      "преде": 1320,
      "после</w>": 1321,
      "думал</w>": 1322,
      "понял</w>": 1323,
      "интере": 1324,
      "человек</w>": 1325,
      "вдо": 1326,
      "влен": 1327,
      "зу": 1328,
      "ожи": 1329,
      "уми": 1330,
      "пожал</w>": 1331,
      "ток</w>": 1332,
      "каж": 1333,
      "зачем</w>": 1334,
      "прово": 1335,
      "сем": 1336,
      "обна": 1337,
      "сами</w>": 1338,
      "фира</w>": 1339,
      "самом</w>": 1340,
      "кван</w>": 1341,
      "разумеется</w>": 1342,
      "чка</w>": 1343,
      "коман": 1344,
      "нему</w>": 1345,
      "запа": 1346,
      "тесь</w>": 1347,
      "меча</w>": 1348,
      "приня": 1349,
      "широ": 1350,
      "позво": 1351,
      "рукой</w>": 1352,
      "четы": 1353,
      "сего": 1354,
      "гут</w>": 1355,
      "думаю</w>": 1356,
      "глазах</w>": 1357,
      "опусти": 1358,
      "увидел</w>": 1359,
      "нифа": 1360,
      "гом</w>": 1361,
      "ход</w>": 1362,
      "стоит</w>": 1363,
      "пусть</w>": 1364,
      "воин</w>": 1365,
      "пят": 1366,
      "странник</w>": 1367,
      "поднял</w>": 1368,
      "потому</w>": 1369,
      "жизни</w>": 1370,
      "морох</w>": 1371,
      "оде": 1372,
      "тря": 1373,
      "стер": 1374,
      "енно</w>": 1375,
      "кар": 1376,
      "такой</w>": 1377,
      "разу</w>": 1378,
      "пал</w>": 1379,
      "подоз": 1380,
      "женщина</w>": 1381,
      "счита": 1382,
      "правда</w>": 1383,
      "день</w>": 1384,
      "другой</w>": 1385,
      "тобой</w>": 1386,
      "дей</w>": 1387,
      "бог</w>": 1388,
      "жется</w>": 1389,
      "сказать</w>": 1390,
      "цать</w>": 1391,
      "пять</w>": 1392,
      "гряз": 1393,
      "бу</w>": 1394,
      "еся</w>": 1395,
      "хся</w>": 1396,
      "поро": 1397,
      "ран": 1398,
      "точ": 1399,
      "тома": 1400,
      "несколько</w>": 1401,
      "хом</w>": 1402,
      "чить</w>": 1403,
      "должен</w>": 1404,
      "самого</w>": 1405,
      "тень</w>": 1406,
      "спиной</w>": 1407,
      "смерть</w>": 1408,
      "быстро</w>": 1409,
      "уничто": 1410,
      "нный</w>": 1411,
      "обы": 1412,
      "уз": 1413,
      "эбери": 1414,
      "ностью</w>": 1415,
      "телей</w>": 1416,
      "собира": 1417,
      "дум": 1418,
      "верну": 1419,
      "кими</w>": 1420,
      "бит": 1421,
      "пери": 1422,
      "вших</w>": 1423,
      "крови</w>": 1424,
      "женщины</w>": 1425,
      "против</w>": 1426,
      "жизнь</w>": 1427,
      "хочешь</w>": 1428,
      "цов</w>": 1429,
      "..</w>": 1430,
      "внеза": 1431,
      "пы</w>": 1432,
      "твой</w>": 1433,
      "ый</w>": 1434,
      "полага": 1435,
      "кори": 1436,
      "ник": 1437,
      "защи": 1438,
      "тер</w>": 1439,
      "преда": 1440,
      "щие</w>": 1441,
      "щий</w>": 1442,
      "шагов</w>": 1443,
      "улыбнулся</w>": 1444,
      "далеко</w>": 1445,
      "внезап": 1446,
      "се</w>": 1447,
      "цве": 1448,
      "шение</w>": 1449,
      "ень": 1450,
      "мои</w>": 1451,
      "тех</w>": 1452,
      "дома</w>": 1453,
      "такое</w>": 1454,
      "хочу</w>": 1455,
      "верно</w>": 1456,
      "силы</w>": 1457,
      "буд": 1458,
      "жесто": 1459,
      "путь</w>": 1460,
      "вший</w>": 1461,
      "лица</w>": 1462,
      "клони": 1463,
      "произнес</w>": 1464,
      "императора</w>": 1465,
      "ление</w>": 1466,
      "оно</w>": 1467,
      "обе": 1468,
      "лой</w>": 1469,
      "тами</w>": 1470,
      "конце</w>": 1471,
      "ханнана</w>": 1472,
      "мосага</w>": 1473,
      "вниз</w>": 1474,
      "корло</w>": 1475,
      "хотел</w>": 1476,
      "совершен": 1477,
      "жала</w>": 1478,
      "огля": 1479,
      "оказ": 1480,
      "сразу</w>": 1481,
      "эл": 1482,
      "нуж": 1483,
      "бок</w>": 1484,
      "стар": 1485,
      "знает</w>": 1486,
      "знаешь</w>": 1487,
      "тых</w>": 1488,
      "воздух</w>": 1489,
      "голос</w>": 1490,
      "долго</w>": 1491,
      "которых</w>": 1492,
      "ублала</w>": 1493,
      "дальше</w>": 1494,
      "древ": 1495,
      "вдруг</w>": 1496,
      "сно</w>": 1497,
      "вом</w>": 1498,
      "кан": 1499,
      "ним": 1500,
      "нить</w>": 1501,
      "тера": 1502,
      "деле</w>": 1503,
      "сор": 1504,
      "будут</w>": 1505,
      "вала": 1506,
      "гиль": 1507,
      "одна</w>": 1508,
      "говорить</w>": 1509,
      "ближе</w>": 1510,
      "бормо": 1511,
      "будто</w>": 1512,
      "мной</w>": 1513,
      "сви": 1514,
      "хе": 1515,
      "рав": 1516,
      "дожд": 1517,
      "дется</w>": 1518,
      "лич": 1519,
      "тар": 1520,
      "прокля": 1521,
      "вери": 1522,
      "силь": 1523,
      "мимо</w>": 1524,
      "возвра": 1525,
      "вшие</w>": 1526,
      "начала</w>": 1527,
      "ствие</w>": 1528,
      "глубо": 1529,
      "летерас": 1530,
      "един": 1531,
      "элаль</w>": 1532,
      "опа": 1533,
      "уго": 1534,
      "закры": 1535,
      "дил</w>": 1536,
      "мина": 1537,
      "жде</w>": 1538,
      "вшийся</w>": 1539,
      "пыта": 1540,
      "рисна": 1541,
      "сегодня</w>": 1542,
      "ждет</w>": 1543,
      "шло</w>": 1544,
      "покля": 1545,
      "нах</w>": 1546,
      "недо": 1547,
      "дов</w>": 1548,
      "жит</w>": 1549,
      "шие</w>": 1550,
      "гами</w>": 1551,
      "сут": 1552,
      "судь": 1553,
      "других</w>": 1554,
      "ступа": 1555,
      "глазами</w>": 1556,
      "лла": 1557,
      "окру": 1558,
      "ощу": 1559,
      "щего</w>": 1560,
      "щей</w>": 1561,
      "кости</w>": 1562,
      "тому</w>": 1563,
      "вижу</w>": 1564,
      "тия</w>": 1565,
      "самы": 1566,
      "стве</w>": 1567,
      "правля": 1568,
      "удинааса</w>": 1569,
      "имя</w>": 1570,
      "ция</w>": 1571,
      "воинов</w>": 1572,
      "землю</w>": 1573,
      "спокой": 1574,
      "ви</w>": 1575,
      "ог": 1576,
      "оте": 1577,
      "таль": 1578,
      "поко": 1579,
      "наконец</w>": 1580,
      "вое</w>": 1581,
      "восто": 1582,
      "меш": 1583,
      "хол": 1584,
      "муж": 1585,
      "сквоз": 1586,
      "видеть</w>": 1587,
      "объя": 1588,
      "времени</w>": 1589,
      "мгновение</w>": 1590,
      "иск": 1591,
      "нда": 1592,
      "спу": 1593,
      "поза": 1594,
      "кам</w>": 1595,
      "момен": 1596,
      "лет</w>": 1597,
      "обла": 1598,
      "ская</w>": 1599,
      "лые</w>": 1600,
      "ледя": 1601,
      "исче": 1602,
      "летерийцев</w>": 1603,
      "зыва": 1604,
      "сердце</w>": 1605,
      "внов": 1606,
      "дше": 1607,
      "две</w>": 1608,
      "затем</w>": 1609,
      "тащи": 1610,
      "мая</w>": 1611,
      "верен": 1612,
      "знач": 1613,
      "знако": 1614,
      "скоро</w>": 1615,
      "думать</w>": 1616,
      "кровью</w>": 1617,
      "край": 1618,
      "ходит</w>": 1619,
      "которой</w>": 1620,
      "этим</w>": 1621,
      "евнух</w>": 1622,
      "вновь</w>": 1623,
      "дали</w>": 1624,
      "цу</w>": 1625,
      "пор</w>": 1626,
      "равно</w>": 1627,
      "кажется</w>": 1628,
      "мет": 1629,
      "мен</w>": 1630,
      "столько</w>": 1631,
      "жидан": 1632,
      "скольз": 1633,
      "тегола</w>": 1634,
      "этому</w>": 1635,
      "действи": 1636,
      "демон</w>": 1637,
      "неожидан": 1638,
      "валась</w>": 1639,
      "зу</w>": 1640,
      "иска": 1641,
      "мал": 1642,
      "ху</w>": 1643,
      "чные</w>": 1644,
      "стало</w>": 1645,
      "най": 1646,
      "нием</w>": 1647,
      "нется</w>": 1648,
      "теля</w>": 1649,
      "вание</w>": 1650,
      "дево": 1651,
      "тился</w>": 1652,
      "чет</w>": 1653,
      "вало": 1654,
      "мере</w>": 1655,
      "туда</w>": 1656,
      "слуга</w>": 1657,
      "импери": 1658,
      "ющих</w>": 1659,
      "цами</w>": 1660,
      "квилла": 1661,
      "копье</w>": 1662,
      "принц</w>": 1663,
      "другие</w>": 1664,
      "вздохнул</w>": 1665,
      "большой</w>": 1666,
      "холод": 1667,
      "риснан</w>": 1668,
      "чного</w>": 1669,
      "ради</w>": 1670,
      "немного</w>": 1671,
      "зал</w>": 1672,
      "чать</w>": 1673,
      "обре": 1674,
      "братья</w>": 1675,
      "бриса</w>": 1676,
      "одно</w>": 1677,
      "стояли</w>": 1678,
      "тянул</w>": 1679,
      "ответ</w>": 1680,
      "удари": 1681,
      "строи": 1682,
      "нифадас</w>": 1683,
      "гне": 1684,
      "зга": 1685,
      "ими</w>": 1686,
      "инач": 1687,
      "кла": 1688,
      "плы": 1689,
      "смерт": 1690,
      "лед</w>": 1691,
      "выбра": 1692,
      "сел</w>": 1693,
      "север": 1694,
      "мать</w>": 1695,
      "шим</w>": 1696,
      "слуша": 1697,
      "взглядом</w>": 1698,
      "этих</w>": 1699,
      "комна": 1700,
      "истори": 1701,
      "слышал</w>": 1702,
      "нахмурился</w>": 1703,
      "отец</w>": 1704,
      "сквозь</w>": 1705,
      "иначе</w>": 1706,
      "гвар": 1707,
      "лл</w>": 1708,
      "мало</w>": 1709,
      "нно</w>": 1710,
      "уд": 1711,
      "начал</w>": 1712,
      "ницы</w>": 1713,
      "ладо": 1714,
      "вить</w>": 1715,
      "выр": 1716,
      "откуда</w>": 1717,
      "ставля": 1718,
      "пути</w>": 1719,
      "брать": 1720,
      "свою</w>": 1721,
      "грома": 1722,
      "убий": 1723,
      "которое</w>": 1724,
      "сделать</w>": 1725,
      "креп": 1726,
      "объяс": 1727,
      "жали</w>": 1728,
      "ждать</w>": 1729,
      "зда": 1730,
      "руками</w>": 1731,
      "заня": 1732,
      "вания</w>": 1733,
      "дает</w>": 1734,
      "маг</w>": 1735,
      "плеч": 1736,
      "торго": 1737,
      "должны</w>": 1738,
      "драко": 1739,
      "обнаружи": 1740,
      "совершенно</w>": 1741,
      "вместе</w>": 1742,
      "жер": 1743,
      "кти": 1744,
      "нра": 1745,
      "ору": 1746,
      "пала": 1747,
      "шно</w>": 1748,
      "язы": 1749,
      "рот</w>": 1750,
      "роди": 1751,
      "моя</w>": 1752,
      "нут</w>": 1753,
      "видно</w>": 1754,
      "пробормо": 1755,
      "сове": 1756,
      "места</w>": 1757,
      "выми</w>": 1758,
      "верх</w>": 1759,
      "шаг</w>": 1760,
      "туру": 1761,
      "своей</w>": 1762,
      "получи": 1763,
      "помощ": 1764,
      "понимаю</w>": 1765,
      "валось</w>": 1766,
      "вряд</w>": 1767,
      "ез": 1768,
      "ления</w>": 1769,
      "стру": 1770,
      "стали</w>": 1771,
      "пора</w>": 1772,
      "вооб": 1773,
      "воды</w>": 1774,
      "нок</w>": 1775,
      "вари": 1776,
      "дешь</w>": 1777,
      "прочь</w>": 1778,
      "сама</w>": 1779,
      "кроме</w>": 1780,
      "свой</w>": 1781,
      "глядя</w>": 1782,
      "мысли</w>": 1783,
      "воины</w>": 1784,
      "ством</w>": 1785,
      "остановился</w>": 1786,
      "ступил</w>": 1787,
      "ющей</w>": 1788,
      "тысяч</w>": 1789,
      "ребен": 1790,
      "единствен": 1791,
      "мужчи": 1792,
      "вообще</w>": 1793,
      "аза": 1794,
      "зал": 1795,
      "осно": 1796,
      "ских</w>": 1797,
      "фе": 1798,
      "эзга": 1799,
      "потре": 1800,
      "тон": 1801,
      "кажд": 1802,
      "нельз": 1803,
      "тена": 1804,
      "тело": 1805,
      "дости": 1806,
      "дела</w>": 1807,
      "нувшись</w>": 1808,
      "такие</w>": 1809,
      "диска": 1810,
      "сок</w>": 1811,
      "стары": 1812,
      "шеп": 1813,
      "превра": 1814,
      "прежде</w>": 1815,
      "скор": 1816,
      "жден": 1817,
      "лице</w>": 1818,
      "город</w>": 1819,
      "противо": 1820,
      "солн": 1821,
      "двор": 1822,
      "достаточно</w>": 1823,
      "наверное</w>": 1824,
      "поборник</w>": 1825,
      "нельзя</w>": 1826,
      "звер": 1827,
      "испо": 1828,
      "ок</w>": 1829,
      "освобо": 1830,
      "про</w>": 1831,
      "ря</w>": 1832,
      "яза": 1833,
      "начи": 1834,
      "непод": 1835,
      "вай</w>": 1836,
      "вают</w>": 1837,
      "прош": 1838,
      "обяза": 1839,
      "пан": 1840,
      "банда": 1841,
      "концов</w>": 1842,
      "плоть</w>": 1843,
      "халла</w>": 1844,
      "поднялся</w>": 1845,
      "раба</w>": 1846,
      "солдат</w>": 1847,
      "обернулся</w>": 1848,
      "гна": 1849,
      "тка</w>": 1850,
      "яро": 1851,
      "ять</w>": 1852,
      "пове": 1853,
      "док</w>": 1854,
      "бога</w>": 1855,
      "причи": 1856,
      "сколь": 1857,
      "удиви": 1858,
      "своего</w>": 1859,
      "видела</w>": 1860,
      "бросил</w>": 1861,
      "осталь": 1862,
      "молчал</w>": 1863,
      "внутри</w>": 1864,
      "ствует</w>": 1865,
      "вления</w>": 1866,
      "мечом</w>": 1867,
      "дискана": 1868,
      "вхо": 1869,
      "вверх</w>": 1870,
      "кта</w>": 1871,
      "огром": 1872,
      "сере": 1873,
      "фу": 1874,
      "ху": 1875,
      "шения</w>": 1876,
      "поря": 1877,
      "настоя": 1878,
      "ночь</w>": 1879,
      "рую</w>": 1880,
      "лож": 1881,
      "виду</w>": 1882,
      "бога": 1883,
      "жили</w>": 1884,
      "разд": 1885,
      "прекрас": 1886,
      "скабанда": 1887,
      "шат": 1888,
      "ском</w>": 1889,
      "измени": 1890,
      "которая</w>": 1891,
      "кончи": 1892,
      "осталось</w>": 1893,
      "думаешь</w>": 1894,
      "казалось</w>": 1895,
      "смерти</w>": 1896,
      "фигура</w>": 1897,
      "двух</w>": 1898,
      "решил</w>": 1899,
      "вопрос</w>": 1900,
      "раньше</w>": 1901,
      "терадас</w>": 1902,
      "громад": 1903,
      "скабандари</w>": 1904,
      "гре": 1905,
      "опу": 1906,
      "очере": 1907,
      "ски</w>": 1908,
      "слен": 1909,
      "убе": 1910,
      "чали</w>": 1911,
      "ща</w>": 1912,
      "попро": 1913,
      "кап": 1914,
      "тек": 1915,
      "тела</w>": 1916,
      "ваясь</w>": 1917,
      "придется</w>": 1918,
      "чей</w>": 1919,
      "меньше</w>": 1920,
      "преда</w>": 1921,
      "своих</w>": 1922,
      "делать</w>": 1923,
      "города</w>": 1924,
      "призраки</w>": 1925,
      "вление</w>": 1926,
      "дверь</w>": 1927,
      "четыре</w>": 1928,
      "эберикт</w>": 1929,
      "коридо": 1930,
      "тартена": 1931,
      "нрави": 1932,
      "телохрани": 1933,
      "бре": 1934,
      "дю": 1935,
      "иг": 1936,
      "йдет</w>": 1937,
      "нения</w>": 1938,
      "оши": 1939,
      "уверен": 1940,
      "щения</w>": 1941,
      "вода</w>": 1942,
      "воду</w>": 1943,
      "ладно</w>": 1944,
      "доспе": 1945,
      "вается</w>": 1946,
      "тан": 1947,
      "вышел</w>": 1948,
      "отра": 1949,
      "отправи": 1950,
      "пах": 1951,
      "няя</w>": 1952,
      "пуга": 1953,
      "баталь": 1954,
      "мыш": 1955,
      "говорит</w>": 1956,
      "одино": 1957,
      "воина</w>": 1958,
      "нереков</w>": 1959,
      "анди</w>": 1960,
      "крайней</w>": 1961,
      "начина": 1962,
      "ата": 1963,
      "зло": 1964,
      "опреде": 1965,
      "сне": 1966,
      "тю": 1967,
      "щее</w>": 1968,
      "пор": 1969,
      "пожал": 1970,
      "наве": 1971,
      "могут</w>": 1972,
      "нужен</w>": 1973,
      "сою": 1974,
      "выпря": 1975,
      "стара": 1976,
      "част": 1977,
      "вся": 1978,
      "памя": 1979,
      "скажи</w>": 1980,
      "кура": 1981,
      "шагах</w>": 1982,
      "подчи": 1983,
      "свои</w>": 1984,
      "своим</w>": 1985,
      "мые</w>": 1986,
      "племен": 1987,
      "вут</w>": 1988,
      "шую</w>": 1989,
      "сын</w>": 1990,
      "земле</w>": 1991,
      "удар</w>": 1992,
      "щую</w>": 1993,
      "умира": 1994,
      "пожалу": 1995,
      "пали</w>": 1996,
      "сра": 1997,
      "устави": 1998,
      "шки</w>": 1999,
      "эту</w>": 2000,
      "лен</w>": 2001,
      "нуться</w>": 2002,
      "тай": 2003,
      "дав": 2004,
      "тие</w>": 2005,
      "стол": 2006,
      "стой</w>": 2007,
      "станови": 2008,
      "щих</w>": 2009,
      "одного</w>": 2010,
      "предло": 2011,
      "ственно</w>": 2012,
      "хочет</w>": 2013,
      "верен</w>": 2014,
      "волосы</w>": 2015,
      "чародей": 2016,
      "зы</w>": 2017,
      "осторо": 2018,
      "уто": 2019,
      "уверен</w>": 2020,
      "род": 2021,
      "наз": 2022,
      "наш</w>": 2023,
      "вое": 2024,
      "какие</w>": 2025,
      "какая</w>": 2026,
      "мощ": 2027,
      "зада": 2028,
      "гося</w>": 2029,
      "личи": 2030,
      "прон": 2031,
      "прочем</w>": 2032,
      "дар</w>": 2033,
      "весь</w>": 2034,
      "гал</w>": 2035,
      "гая</w>": 2036,
      "тыми</w>": 2037,
      "трей": 2038,
      "жды</w>": 2039,
      "свое</w>": 2040,
      "одной</w>": 2041,
      "лицом</w>": 2042,
      "подоб": 2043,
      "надле": 2044,
      "можешь</w>": 2045,
      "поверх": 2046,
      "город": 2047,
      "свет</w>": 2048,
      "ставить</w>": 2049,
      "покачал</w>": 2050,
      "хватит</w>": 2051,
      "колени</w>": 2052,
      "чувствовал</w>": 2053,
      "жерт": 2054,
      "пробормотал</w>": 2055,
      "азатов</w>": 2056,
      "впрочем</w>": 2057,
      "дала</w>": 2058,
      "ские</w>": 2059,
      "стари": 2060,
      "всю</w>": 2061,
      "нять</w>": 2062,
      "мире</w>": 2063,
      "тую</w>": 2064,
      "кроплен": 2065,
      "вшихся</w>": 2066,
      "консор": 2067,
      "мертвых</w>": 2068,
      "груп": 2069,
      "обители</w>": 2070,
      "башня</w>": 2071,
      "вен": 2072,
      "вста": 2073,
      "ец</w>": 2074,
      "есте": 2075,
      "ешься</w>": 2076,
      "ню": 2077,
      "особ": 2078,
      "пры": 2079,
      "ун": 2080,
      "уве": 2081,
      "хнула</w>": 2082,
      "чки</w>": 2083,
      "стала</w>": 2084,
      "роде</w>": 2085,
      "направи": 2086,
      "костей</w>": 2087,
      "мом</w>": 2088,
      "завер": 2089,
      "засты": 2090,
      "гой</w>": 2091,
      "дит</w>": 2092,
      "собра": 2093,
      "веро": 2094,
      "стой": 2095,
      "миди": 2096,
      "путе": 2097,
      "скоре": 2098,
      "возмо": 2099,
      "ждение</w>": 2100,
      "твоя</w>": 2101,
      "плот": 2102,
      "которого</w>": 2103,
      "внизу</w>": 2104,
      "колдуна</w>": 2105,
      "берегу</w>": 2106,
      "нереки</w>": 2107,
      "колон": 2108,
      "второй</w>": 2109,
      "дюжи": 2110,
      "выпрями": 2111,
      "?..</w>": 2112,
      "ара": 2113,
      "впере": 2114,
      "трен": 2115,
      "хмы": 2116,
      "эта</w>": 2117,
      "постоя": 2118,
      "нан": 2119,
      "какое</w>": 2120,
      "нику</w>": 2121,
      "рука</w>": 2122,
      "руке</w>": 2123,
      "доба": 2124,
      "лем</w>": 2125,
      "лега": 2126,
      "дели</w>": 2127,
      "собы": 2128,
      "привы": 2129,
      "принадле": 2130,
      "меня": 2131,
      "пад": 2132,
      "ально</w>": 2133,
      "люди</w>": 2134,
      "случи": 2135,
      "скри": 2136,
      "цию</w>": 2137,
      "спросила</w>": 2138,
      "последний</w>": 2139,
      "спаси": 2140,
      "легко</w>": 2141,
      "известно</w>": 2142,
      "следует</w>": 2143,
      "вдоль</w>": 2144,
      "внезапно</w>": 2145,
      "канц": 2146,
      "вь</w>": 2147,
      "дти</w>": 2148,
      "жка</w>": 2149,
      "зер": 2150,
      "идти</w>": 2151,
      "пр": 2152,
      "сси": 2153,
      "сту</w>": 2154,
      "поме": 2155,
      "помина": 2156,
      "небо</w>": 2157,
      "руши": 2158,
      "лов</w>": 2159,
      "лест": 2160,
      "вила</w>": 2161,
      "тать</w>": 2162,
      "сот": 2163,
      "состоя": 2164,
      "боюсь</w>": 2165,
      "выз": 2166,
      "выра": 2167,
      "тихо</w>": 2168,
      "четвер": 2169,
      "беско": 2170,
      "чая</w>": 2171,
      "лями</w>": 2172,
      "вско": 2173,
      "преж": 2174,
      "щим</w>": 2175,
      "изви": 2176,
      "которую</w>": 2177,
      "голова</w>": 2178,
      "бугга</w>": 2179,
      "держа": 2180,
      "твои</w>": 2181,
      "глуби": 2182,
      "хиро": 2183,
      "пытался</w>": 2184,
      "охран": 2185,
      "могли</w>": 2186,
      "монеты</w>": 2187,
      "прер": 2188,
      "емся</w>": 2189,
      "пен": 2190,
      "чь": 2191,
      "чала</w>": 2192,
      "нове": 2193,
      "кал</w>": 2194,
      "море</w>": 2195,
      "зако": 2196,
      "заклю": 2197,
      "доб": 2198,
      "вад": 2199,
      "вах</w>": 2200,
      "лил</w>": 2201,
      "выпол": 2202,
      "хоть</w>": 2203,
      "хоти": 2204,
      "тили</w>": 2205,
      "призна": 2206,
      "приходи": 2207,
      "присут": 2208,
      "сед": 2209,
      "чай": 2210,
      "разу": 2211,
      "разгля": 2212,
      "преду": 2213,
      "гар": 2214,
      "подру": 2215,
      "краю</w>": 2216,
      "хватил</w>": 2217,
      "стые</w>": 2218,
      "дят</w>": 2219,
      "много": 2220,
      "видишь</w>": 2221,
      "видимо</w>": 2222,
      "обитель</w>": 2223,
      "необы": 2224,
      "призрак</w>": 2225,
      "девочка</w>": 2226,
      "впереди</w>": 2227,
      "бесконе": 2228,
      "исти": 2229,
      "сма": 2230,
      "ска</w>": 2231,
      "ску": 2232,
      "сму": 2233,
      "спусти": 2234,
      "тк": 2235,
      "тку</w>": 2236,
      "ног</w>": 2237,
      "руках</w>": 2238,
      "тает</w>": 2239,
      "таким</w>": 2240,
      "созна": 2241,
      "тий</w>": 2242,
      "прили": 2243,
      "отча": 2244,
      "стая</w>": 2245,
      "беспо": 2246,
      "жила</w>": 2247,
      "часть</w>": 2248,
      "разгово": 2249,
      "первой</w>": 2250,
      "первые</w>": 2251,
      "способ": 2252,
      "остальные</w>": 2253,
      "держ": 2254,
      "твое</w>": 2255,
      "летерийцы</w>": 2256,
      "грудь</w>": 2257,
      "грани": 2258,
      "стреми": 2259,
      "лезви": 2260,
      "справа</w>": 2261,
      "дождь</w>": 2262,
      "исчез": 2263,
      "действительно</w>": 2264,
      "возмож": 2265,
      "».</w>": 2266,
      "двад": 2267,
      "ого": 2268,
      "тке</w>": 2269,
      "шку</w>": 2270,
      "поэтому</w>": 2271,
      "наши</w>": 2272,
      "кожа</w>": 2273,
      "никого</w>": 2274,
      "нена": 2275,
      "зави": 2276,
      "темно": 2277,
      "лом": 2278,
      "доволь": 2279,
      "деть</w>": 2280,
      "готов</w>": 2281,
      "нуло</w>": 2282,
      "льно</w>": 2283,
      "льзо": 2284,
      "такого</w>": 2285,
      "даса</w>": 2286,
      "боро": 2287,
      "матер": 2288,
      "шее</w>": 2289,
      "мым</w>": 2290,
      "остро": 2291,
      "дым</w>": 2292,
      "самое</w>": 2293,
      "странно</w>": 2294,
      "земли</w>": 2295,
      "убить</w>": 2296,
      "спину</w>": 2297,
      "слыш": 2298,
      "множе": 2299,
      "война</w>": 2300,
      "геруна</w>": 2301,
      "солдаты</w>": 2302,
      "внимания</w>": 2303,
      "смотреть</w>": 2304,
      "интересно</w>": 2305,
      "томад</w>": 2306,
      "малень": 2307,
      "плечо</w>": 2308,
      "каждый</w>": 2309,
      "путеше": 2310,
      "скорее</w>": 2311,
      "джу": 2312,
      "лки</w>": 2313,
      "сь": 2314,
      "умер": 2315,
      "увы</w>": 2316,
      "хе</w>": 2317,
      "хуже</w>": 2318,
      "шлось</w>": 2319,
      "пошел</w>": 2320,
      "рабы</w>": 2321,
      "вовсе</w>": 2322,
      "моз": 2323,
      "лоша": 2324,
      "госпо": 2325,
      "сопроти": 2326,
      "соеди": 2327,
      "бой": 2328,
      "беспоко": 2329,
      "сили": 2330,
      "сидел</w>": 2331,
      "избе": 2332,
      "возду": 2333,
      "гие</w>": 2334,
      "говорила</w>": 2335,
      "крепо": 2336,
      "ющего</w>": 2337,
      "ужас": 2338,
      "внимание</w>": 2339,
      "армии</w>": 2340,
      "поклявшийся</w>": 2341,
      "квиллас</w>": 2342,
      "гни": 2343,
      "гли": 2344,
      "идет</w>": 2345,
      "игра": 2346,
      "ке": 2347,
      "нных</w>": 2348,
      "свиде": 2349,
      "тали</w>": 2350,
      "цем</w>": 2351,
      "ые</w>": 2352,
      "пого": 2353,
      "неприя": 2354,
      "забо": 2355,
      "дами</w>": 2356,
      "чест": 2357,
      "отсюда</w>": 2358,
      "отвернулся</w>": 2359,
      "столь</w>": 2360,
      "оба</w>": 2361,
      "рят</w>": 2362,
      "писа": 2363,
      "ского</w>": 2364,
      "людей</w>": 2365,
      "бар": 2366,
      "тельный</w>": 2367,
      "хар": 2368,
      "видели</w>": 2369,
      "цели": 2370,
      "ответила</w>": 2371,
      "трон</w>": 2372,
      "цати</w>": 2373,
      "королевы</w>": 2374,
      "молча</w>": 2375,
      "света</w>": 2376,
      "груди</w>": 2377,
      "стене</w>": 2378,
      "рабов</w>": 2379,
      "связа": 2380,
      "надеюсь</w>": 2381,
      "чувству": 2382,
      "хеджу": 2383,
      "летерасе</w>": 2384,
      "турудал</w>": 2385,
      "прекрасно</w>": 2386,
      "спасибо</w>": 2387,
      "хеджун</w>": 2388,
      "вку": 2389,
      "дка</w>": 2390,
      "кнула</w>": 2391,
      "нер": 2392,
      "рю": 2393,
      "рго": 2394,
      "тала</w>": 2395,
      "уж</w>": 2396,
      "щер": 2397,
      "яг": 2398,
      "яви": 2399,
      "пора": 2400,
      "пода": 2401,
      "рада</w>": 2402,
      "наг": 2403,
      "находи": 2404,
      "тое</w>": 2405,
      "нож": 2406,
      "ногами</w>": 2407,
      "нию</w>": 2408,
      "руко": 2409,
      "лая</w>": 2410,
      "таких</w>": 2411,
      "ходя</w>": 2412,
      "тит</w>": 2413,
      "печа": 2414,
      "трудно</w>": 2415,
      "пита": 2416,
      "мур": 2417,
      "которым</w>": 2418,
      "дыха": 2419,
      "земля</w>": 2420,
      "королева</w>": 2421,
      "понять</w>": 2422,
      "ствовать</w>": 2423,
      "двое</w>": 2424,
      "кивнула</w>": 2425,
      "бурука</w>": 2426,
      "ясно</w>": 2427,
      "двери</w>": 2428,
      "бледный</w>": 2429,
      "никаких</w>": 2430,
      "королевский</w>": 2431,
      "благодар": 2432,
      "момент</w>": 2433,
      "фурго": 2434,
      "мидик</w>": 2435,
      "отчая": 2436,
      "вли": 2437,
      "впол": 2438,
      "встал</w>": 2439,
      "зали": 2440,
      "нт</w>": 2441,
      "тной</w>": 2442,
      "уло": 2443,
      "хру": 2444,
      "юще": 2445,
      "явно</w>": 2446,
      "рачи": 2447,
      "раны</w>": 2448,
      "напол": 2449,
      "кость</w>": 2450,
      "нился</w>": 2451,
      "могиль": 2452,
      "заб": 2453,
      "забы": 2454,
      "дови": 2455,
      "сооб": 2456,
      "пришел</w>": 2457,
      "сен</w>": 2458,
      "ениями</w>": 2459,
      "обе</w>": 2460,
      "рыз": 2461,
      "сар</w>": 2462,
      "пил</w>": 2463,
      "изу": 2464,
      "гиб": 2465,
      "одну</w>": 2466,
      "полностью</w>": 2467,
      "спосо": 2468,
      "брови</w>": 2469,
      "смотр": 2470,
      "ющим</w>": 2471,
      "надцать</w>": 2472,
      "молча": 2473,
      "дорогу</w>": 2474,
      "встречу</w>": 2475,
      "моря</w>": 2476,
      "резко</w>": 2477,
      "неважно</w>": 2478,
      "наружу</w>": 2479,
      "вшегося</w>": 2480,
      "приблизи": 2481,
      "согласи": 2482,
      "обеща": 2483,
      "возвраща": 2484,
      "позади</w>": 2485,
      "братьев</w>": 2486,
      "эзгара</w>": 2487,
      "канцле": 2488,
      "огонь</w>": 2489,
      "ах</w>": 2490,
      "едва</w>": 2491,
      "ждал</w>": 2492,
      "ский</w>": 2493,
      "уг": 2494,
      "фо": 2495,
      "шля": 2496,
      "эмур": 2497,
      "ющая</w>": 2498,
      "ялся</w>": 2499,
      "почи": 2500,
      "подумал</w>": 2501,
      "алл</w>": 2502,
      "ником</w>": 2503,
      "реза": 2504,
      "заговорил</w>": 2505,
      "важ": 2506,
      "делега": 2507,
      "горе": 2508,
      "нутал</w>": 2509,
      "прошу</w>": 2510,
      "прошеп": 2511,
      "вез": 2512,
      "ветер</w>": 2513,
      "отца</w>": 2514,
      "обма": 2515,
      "силу</w>": 2516,
      "будем</w>": 2517,
      "жей</w>": 2518,
      "жешь</w>": 2519,
      "прекра": 2520,
      "поднима": 2521,
      "прав</w>": 2522,
      "тым</w>": 2523,
      "возник": 2524,
      "слож": 2525,
      "остави": 2526,
      "слева</w>": 2527,
      "тят</w>": 2528,
      "остры": 2529,
      "плохо</w>": 2530,
      "сып": 2531,
      "полови": 2532,
      "войны</w>": 2533,
      "образом</w>": 2534,
      "связ": 2535,
      "гильди": 2536,
      "неожиданно</w>": 2537,
      "солнце</w>": 2538,
      "уннутал</w>": 2539,
      "вка</w>": 2540,
      "вроде</w>": 2541,
      "идем</w>": 2542,
      "нная</w>": 2543,
      "оче": 2544,
      "опять</w>": 2545,
      "пу</w>": 2546,
      "пля": 2547,
      "сла</w>": 2548,
      "тное</w>": 2549,
      "шта": 2550,
      "щение</w>": 2551,
      "насе": 2552,
      "торо": 2553,
      "рук</w>": 2554,
      "мов</w>": 2555,
      "захва": 2556,
      "лад": 2557,
      "горя": 2558,
      "льда</w>": 2559,
      "мель": 2560,
      "выгля": 2561,
      "выше</w>": 2562,
      "тиши": 2563,
      "пригла": 2564,
      "отли": 2565,
      "отвер": 2566,
      "станет</w>": 2567,
      "жив</w>": 2568,
      "буду</w>": 2569,
      "разби": 2570,
      "вспы": 2571,
      "желез": 2572,
      "пел</w>": 2573,
      "первым</w>": 2574,
      "мира</w>": 2575,
      "расска": 2576,
      "люби": 2577,
      "возвы": 2578,
      "трех</w>": 2579,
      "после": 2580,
      "страш": 2581,
      "женные</w>": 2582,
      "больши": 2583,
      "стороне</w>": 2584,
      "остри": 2585,
      "ствия</w>": 2586,
      "ставил</w>": 2587,
      "сэнгара</w>": 2588,
      "умер</w>": 2589,
      "цент": 2590,
      "фигуры</w>": 2591,
      "помни": 2592,
      "башни</w>": 2593,
      "ночью</w>": 2594,
      "неват</w>": 2595,
      "народ</w>": 2596,
      "наблюда": 2597,
      "подозре": 2598,
      "обычно</w>": 2599,
      "нужна</w>": 2600,
      "тюлен": 2601,
      "сматри": 2602,
      "эмурлан": 2603,
      "вки</w>": 2604,
      "дней</w>": 2605,
      "иде": 2606,
      "кет</w>": 2607,
      "нки</w>": 2608,
      "офи": 2609,
      "пе</w>": 2610,
      "сде": 2611,
      "сло</w>": 2612,
      "чку</w>": 2613,
      "щем</w>": 2614,
      "пот</w>": 2615,
      "повто": 2616,
      "наре": 2617,
      "ново": 2618,
      "невиди": 2619,
      "моих</w>": 2620,
      "моей</w>": 2621,
      "тей</w>": 2622,
      "лого</w>": 2623,
      "лиза": 2624,
      "проис": 2625,
      "боли</w>": 2626,
      "богов</w>": 2627,
      "прикры": 2628,
      "привет": 2629,
      "чен</w>": 2630,
      "стом</w>": 2631,
      "стати</w>": 2632,
      "сине": 2633,
      "первая</w>": 2634,
      "жай": 2635,
      "тума": 2636,
      "ждения</w>": 2637,
      "мый</w>": 2638,
      "корот": 2639,
      "должно</w>": 2640,
      "говорят</w>": 2641,
      "жены</w>": 2642,
      "взглянул</w>": 2643,
      "вяз": 2644,
      "площа": 2645,
      "иску": 2646,
      "серь": 2647,
      "городе</w>": 2648,
      "убил</w>": 2649,
      "котором</w>": 2650,
      "внутрен": 2651,
      "летер</w>": 2652,
      "посмотре": 2653,
      "благород": 2654,
      "плитки</w>": 2655,
      "блестя": 2656,
      "двумя</w>": 2657,
      "риссар</w>": 2658,
      "позволя": 2659,
      "томада</w>": 2660,
      "битвы</w>": 2661,
      "союз": 2662,
      "предупре": 2663,
      "подружка</w>": 2664,
      "вполне</w>": 2665,
      "бал": 2666,
      "нной</w>": 2667,
      "тя</w>": 2668,
      "тра</w>": 2669,
      "ул": 2670,
      "чным</w>": 2671,
      "ых</w>": 2672,
      "ьев</w>": 2673,
      "посе": 2674,
      "насколько</w>": 2675,
      "заслу": 2676,
      "лах</w>": 2677,
      "лами</w>": 2678,
      "дели": 2679,
      "делся</w>": 2680,
      "льд</w>": 2681,
      "вести</w>": 2682,
      "выбо": 2683,
      "вытащи": 2684,
      "селу": 2685,
      "отря": 2686,
      "живе": 2687,
      "чает</w>": 2688,
      "жел": 2689,
      "ское</w>": 2690,
      "раскры": 2691,
      "труллу</w>": 2692,
      "вздро": 2693,
      "крысо": 2694,
      "поспе": 2695,
      "слово</w>": 2696,
      "головы</w>": 2697,
      "скре": 2698,
      "сторон</w>": 2699,
      "ходили</w>": 2700,
      "плоти</w>": 2701,
      "самой</w>": 2702,
      "королев": 2703,
      "конеч": 2704,
      "крики</w>": 2705,
      "дороги</w>": 2706,
      "рень</w>": 2707,
      "сердца</w>": 2708,
      "тысячи</w>": 2709,
      "любом</w>": 2710,
      "успел</w>": 2711,
      "принца</w>": 2712,
      "ожида": 2713,
      "империи</w>": 2714,
      "неподви": 2715,
      "нравится</w>": 2716,
      "ошиб": 2717,
      "куральд</w>": 2718,
      "вероя": 2719,
      "выпрямился</w>": 2720,
      "хиротов</w>": 2721,
      "селуш</w>": 2722,
      "!..</w>": 2723,
      "вшей</w>": 2724,
      "вклю": 2725,
      "дал": 2726,
      "дке</w>": 2727,
      "ого</w>": 2728,
      "охот": 2729,
      "пь": 2730,
      "пал": 2731,
      "ски": 2732,
      "хри": 2733,
      "чной</w>": 2734,
      "посте": 2735,
      "нашел</w>": 2736,
      "нашей</w>": 2737,
      "наших</w>": 2738,
      "навстречу</w>": 2739,
      "коле": 2740,
      "кожа": 2741,
      "воспо": 2742,
      "алрада</w>": 2743,
      "каким</w>": 2744,
      "неш": 2745,
      "невозможно</w>": 2746,
      "рил</w>": 2747,
      "моли": 2748,
      "завое": 2749,
      "лагер": 2750,
      "лов": 2751,
      "лиро": 2752,
      "так": 2753,
      "прости": 2754,
      "дили</w>": 2755,
      "дите</w>": 2756,
      "пригото": 2757,
      "пришлось</w>": 2758,
      "честве</w>": 2759,
      "бесчи": 2760,
      "шил</w>": 2761,
      "кинул</w>": 2762,
      "лях</w>": 2763,
      "разру": 2764,
      "жет</w>": 2765,
      "шем</w>": 2766,
      "ству</w>": 2767,
      "сушен": 2768,
      "измен": 2769,
      "своем</w>": 2770,
      "тельные</w>": 2771,
      "тельство</w>": 2772,
      "брига": 2773,
      "бризад</w>": 2774,
      "страда": 2775,
      "стоять</w>": 2776,
      "стояла</w>": 2777,
      "конца</w>": 2778,
      "контра": 2779,
      "ций</w>": 2780,
      "броса": 2781,
      "одиноч": 2782,
      "странника</w>": 2783,
      "близ": 2784,
      "подняла</w>": 2785,
      "женщин</w>": 2786,
      "мысль</w>": 2787,
      "слабо": 2788,
      "льзу": 2789,
      "другого</w>": 2790,
      "хотелось</w>": 2791,
      "священ": 2792,
      "продолжал</w>": 2793,
      "смысле</w>": 2794,
      "взял</w>": 2795,
      "команди": 2796,
      "угодно</w>": 2797,
      "пронзи": 2798,
      "консорт</w>": 2799,
      "постоянно</w>": 2800,
      "харле": 2801,
      "бесчислен": 2802,
      "вшего</w>": 2803,
      "кали</w>": 2804,
      "лка": 2805,
      "лали</w>": 2806,
      "укра": 2807,
      "ъе": 2808,
      "пол</w>": 2809,
      "радо": 2810,
      "рами</w>": 2811,
      "напря": 2812,
      "наша</w>": 2813,
      "найти</w>": 2814,
      "вон</w>": 2815,
      "никами</w>": 2816,
      "незнако": 2817,
      "рукет</w>": 2818,
      "рить</w>": 2819,
      "моги": 2820,
      "забра": 2821,
      "добра": 2822,
      "либо</w>": 2823,
      "такая</w>": 2824,
      "пробу": 2825,
      "сопрово": 2826,
      "вече": 2827,
      "жили": 2828,
      "чий</w>": 2829,
      "буду": 2830,
      "шевели": 2831,
      "подним": 2832,
      "пусты": 2833,
      "пить</w>": 2834,
      "лых</w>": 2835,
      "люб": 2836,
      "любой</w>": 2837,
      "одно": 2838,
      "чудови": 2839,
      "следы</w>": 2840,
      "племен</w>": 2841,
      "тяну": 2842,
      "цепи": 2843,
      "представля": 2844,
      "зелен": 2845,
      "ближай": 2846,
      "движение</w>": 2847,
      "человека</w>": 2848,
      "несся</w>": 2849,
      "имею</w>": 2850,
      "существо</w>": 2851,
      "деревни</w>": 2852,
      "каждо": 2853,
      "семь": 2854,
      "дисканар</w>": 2855,
      "память</w>": 2856,
      "случилось</w>": 2857,
      "большин": 2858,
      "ак": 2859,
      "гался</w>": 2860,
      "гнула</w>": 2861,
      "дки</w>": 2862,
      "дной</w>": 2863,
      "жда</w>": 2864,
      "жении</w>": 2865,
      "клы": 2866,
      "нного</w>": 2867,
      "око": 2868,
      "пала</w>": 2869,
      "сначала</w>": 2870,
      "стря": 2871,
      "стями</w>": 2872,
      "пог": 2873,
      "покло": 2874,
      "посколь": 2875,
      "рас</w>": 2876,
      "ког": 2877,
      "вов</w>": 2878,
      "нож</w>": 2879,
      "новый</w>": 2880,
      "нице</w>": 2881,
      "реки</w>": 2882,
      "лое</w>": 2883,
      "доль": 2884,
      "ден</w>": 2885,
      "льные</w>": 2886,
      "льный</w>": 2887,
      "проя": 2888,
      "прошел</w>": 2889,
      "боль</w>": 2890,
      "хов</w>": 2891,
      "тились</w>": 2892,
      "принима": 2893,
      "сест": 2894,
      "секре": 2895,
      "отно": 2896,
      "обходи": 2897,
      "сить</w>": 2898,
      "жели</w>": 2899,
      "пада": 2900,
      "преступ": 2901,
      "тью</w>": 2902,
      "печ": 2903,
      "труп</w>": 2904,
      "пусто": 2905,
      "глава</w>": 2906,
      "пира": 2907,
      "возрази": 2908,
      "трещи": 2909,
      "вшиеся</w>": 2910,
      "голосом</w>": 2911,
      "полу</w>": 2912,
      "пыль</w>": 2913,
      "остались</w>": 2914,
      "зовут</w>": 2915,
      "безуми": 2916,
      "мертв</w>": 2917,
      "понятно</w>": 2918,
      "удара</w>": 2919,
      "обраща": 2920,
      "обратно</w>": 2921,
      "оборо": 2922,
      "десять</w>": 2923,
      "горло</w>": 2924,
      "жут": 2925,
      "чески</w>": 2926,
      "продолжил</w>": 2927,
      "магия</w>": 2928,
      "клинок</w>": 2929,
      "могла</w>": 2930,
      "запах</w>": 2931,
      "полагаю</w>": 2932,
      "оказался</w>": 2933,
      "равнове": 2934,
      "опас": 2935,
      "определен": 2936,
      "трейта</w>": 2937,
      "прежнему</w>": 2938,
      "поскольку</w>": 2939,
      "гали</w>": 2940,
      "жением</w>": 2941,
      "ино": 2942,
      "йтесь</w>": 2943,
      "кем</w>": 2944,
      "кстати</w>": 2945,
      "лку</w>": 2946,
      "нка</w>": 2947,
      "оча": 2948,
      "си</w>": 2949,
      "тные</w>": 2950,
      "уга": 2951,
      "угро": 2952,
      "упал</w>": 2953,
      "усили": 2954,
      "шер": 2955,
      "яр": 2956,
      "потя": 2957,
      "пози": 2958,
      "нашего</w>": 2959,
      "настолько</w>": 2960,
      "ене": 2961,
      "никому</w>": 2962,
      "ред": 2963,
      "моего</w>": 2964,
      "зака": 2965,
      "закончи": 2966,
      "дор</w>": 2967,
      "ван</w>": 2968,
      "ваши</w>": 2969,
      "гори": 2970,
      "проби": 2971,
      "дай</w>": 2972,
      "мел": 2973,
      "магов</w>": 2974,
      "махнул</w>": 2975,
      "отде": 2976,
      "старо": 2977,
      "бежал</w>": 2978,
      "менее</w>": 2979,
      "шед": 2980,
      "тьма</w>": 2981,
      "знаем</w>": 2982,
      "бить</w>": 2983,
      "первого</w>": 2984,
      "глаз": 2985,
      "распах": 2986,
      "тельная</w>": 2987,
      "говор": 2988,
      "полз": 2989,
      "ченные</w>": 2990,
      "отвел</w>": 2991,
      "мертвые</w>": 2992,
      "противни": 2993,
      "двинулся</w>": 2994,
      "деревя": 2995,
      "поздно</w>": 2996,
      "демона</w>": 2997,
      "смех</w>": 2998,
      "убл": 2999,
      "средо": 3000,
      "образо": 3001,
      "золото</w>": 3002,
      "камни</w>": 3003,
      "неужели</w>": 3004,
      "зубы</w>": 3005,
      "думала</w>": 3006,
      "исклю": 3007,
      "торгов": 3008,
      "входа</w>": 3009,
      "нюю</w>": 3010,
      "особенно</w>": 3011,
      "сопротивля": 3012,
      "воздухе</w>": 3013,
      "серьез": 3014,
      "также</w>": 3015,
      "аб": 3016,
      "ага</w>": 3017,
      "впервые</w>": 3018,
      "гли</w>": 3019,
      "дные</w>": 3020,
      "жались</w>": 3021,
      "йки</w>": 3022,
      "кли</w>": 3023,
      "нную</w>": 3024,
      "оны</w>": 3025,
      "пти": 3026,
      "рения</w>": 3027,
      "ск</w>": 3028,
      "сжи": 3029,
      "учи": 3030,
      "укры": 3031,
      "фло": 3032,
      "чья</w>": 3033,
      "щи</w>": 3034,
      "эль</w>": 3035,
      "сты</w>": 3036,
      "погло": 3037,
      "пожала</w>": 3038,
      "раэ": 3039,
      "намер": 3040,
      "напомина": 3041,
      "ены</w>": 3042,
      "нос</w>": 3043,
      "несли</w>": 3044,
      "занаве": 3045,
      "лей": 3046,
      "левой</w>": 3047,
      "ваю</w>": 3048,
      "вина</w>": 3049,
      "таки</w>": 3050,
      "продолж": 3051,
      "созда": 3052,
      "мер</w>": 3053,
      "менан": 3054,
      "души</w>": 3055,
      "ереть</w>": 3056,
      "отправля": 3057,
      "жим</w>": 3058,
      "шири": 3059,
      "сим": 3060,
      "силка": 3061,
      "нями</w>": 3062,
      "труд": 3063,
      "жат</w>": 3064,
      "физи": 3065,
      "право</w>": 3066,
      "взо": 3067,
      "бами</w>": 3068,
      "крыль": 3069,
      "посы": 3070,
      "циви": 3071,
      "цита": 3072,
      "подошла</w>": 3073,
      "остался</w>": 3074,
      "безраз": 3075,
      "летериец</w>": 3076,
      "дерева</w>": 3077,
      "хозяи": 3078,
      "финадда</w>": 3079,
      "летерас</w>": 3080,
      "войну</w>": 3081,
      "день": 3082,
      "несла</w>": 3083,
      "пернатой</w>": 3084,
      "десят</w>": 3085,
      "сомн": 3086,
      "удоволь": 3087,
      "приятно</w>": 3088,
      "главное</w>": 3089,
      "склону</w>": 3090,
      "звук</w>": 3091,
      "приближа": 3092,
      "каждом</w>": 3093,
      "позволи": 3094,
      "карти": 3095,
      "верить</w>": 3096,
      "летераса</w>": 3097,
      "ударил</w>": 3098,
      "гвардей": 3099,
      "осторожно</w>": 3100,
      "арапа": 3101,
      "сотни</w>": 3102,
      "вскоре</w>": 3103,
      "двадцать</w>": 3104,
      "множество</w>": 3105,
      "иногда</w>": 3106,
      "средото": 3107,
      "менандор</w>": 3108,
      "бе</w>": 3109,
      "жный</w>": 3110,
      "уль": 3111,
      "хнулся</w>": 3112,
      "худо": 3113,
      "цени": 3114,
      "чение</w>": 3115,
      "чных</w>": 3116,
      "чная</w>": 3117,
      "шо": 3118,
      "юся</w>": 3119,
      "пой</w>": 3120,
      "пов</w>": 3121,
      "помед": 3122,
      "роб": 3123,
      "вод</w>": 3124,
      "казы": 3125,
      "нев": 3126,
      "непри": 3127,
      "некоторое</w>": 3128,
      "риту": 3129,
      "мого</w>": 3130,
      "занима": 3131,
      "лад</w>": 3132,
      "важно</w>": 3133,
      "дети</w>": 3134,
      "деву": 3135,
      "вивала</w>": 3136,
      "лин": 3137,
      "вец</w>": 3138,
      "мекро": 3139,
      "честь</w>": 3140,
      "седы</w>": 3141,
      "дура": 3142,
      "быстре": 3143,
      "отме": 3144,
      "отки": 3145,
      "живо": 3146,
      "обруши": 3147,
      "будешь</w>": 3148,
      "знала</w>": 3149,
      "валь": 3150,
      "кула": 3151,
      "шать</w>": 3152,
      "шагнул</w>": 3153,
      "пуска": 3154,
      "трево": 3155,
      "послу": 3156,
      "своими</w>": 3157,
      "тельным</w>": 3158,
      "друга</w>": 3159,
      "циаль": 3160,
      "края</w>": 3161,
      "повернулась</w>": 3162,
      "серди": 3163,
      "шенный</w>": 3164,
      "стый</w>": 3165,
      "многие</w>": 3166,
      "мяг": 3167,
      "улыбка</w>": 3168,
      "имени</w>": 3169,
      "власти</w>": 3170,
      "существа</w>": 3171,
      "берег</w>": 3172,
      "ческих</w>": 3173,
      "канар": 3174,
      "слышать</w>": 3175,
      "чароде": 3176,
      "армия</w>": 3177,
      "появились</w>": 3178,
      "смотрела</w>": 3179,
      "пальцы</w>": 3180,
      "пальцами</w>": 3181,
      "принялся</w>": 3182,
      "точки</w>": 3183,
      "клонился</w>": 3184,
      "глубоко</w>": 3185,
      "старый</w>": 3186,
      "скорб": 3187,
      "доспехи</w>": 3188,
      "пожалуй</w>": 3189,
      "канцлер</w>": 3190,
      "харлест</w>": 3191,
      "цивилиза": 3192,
      "ил</w>": 3193,
      "кала": 3194,
      "мере": 3195,
      "маль": 3196,
      "нными</w>": 3197,
      "одо": 3198,
      "плю": 3199,
      "рва": 3200,
      "сни": 3201,
      "ссей": 3202,
      "ума</w>": 3203,
      "усме": 3204,
      "фы": 3205,
      "цом</w>": 3206,
      "ым</w>": 3207,
      "юг</w>": 3208,
      "погиб": 3209,
      "равни": 3210,
      "рос": 3211,
      "рок</w>": 3212,
      "вошел</w>": 3213,
      "ворачи": 3214,
      "ночи</w>": 3215,
      "ностей</w>": 3216,
      "каком</w>": 3217,
      "руин</w>": 3218,
      "моему</w>": 3219,
      "зая": 3220,
      "досто": 3221,
      "домой</w>": 3222,
      "лежал</w>": 3223,
      "ваш</w>": 3224,
      "тако": 3225,
      "пропа": 3226,
      "давай</w>": 3227,
      "ведет</w>": 3228,
      "выхо": 3229,
      "привле": 3230,
      "чество</w>": 3231,
      "мах</w>": 3232,
      "отда": 3233,
      "отсут": 3234,
      "отступил</w>": 3235,
      "жите</w>": 3236,
      "чик</w>": 3237,
      "разо": 3238,
      "разго": 3239,
      "нял</w>": 3240,
      "куз": 3241,
      "кул</w>": 3242,
      "трудом</w>": 3243,
      "сухо": 3244,
      "расстоя": 3245,
      "лым</w>": 3246,
      "возь": 3247,
      "багро": 3248,
      "крыше</w>": 3249,
      "требу": 3250,
      "треть": 3251,
      "мых</w>": 3252,
      "голове</w>": 3253,
      "хао": 3254,
      "гига": 3255,
      "руладом</w>": 3256,
      "слуги</w>": 3257,
      "больно</w>": 3258,
      "оставля": 3259,
      "плечи</w>": 3260,
      "поле</w>": 3261,
      "губы</w>": 3262,
      "смог</w>": 3263,
      "трое</w>": 3264,
      "заметила</w>": 3265,
      "мертвая</w>": 3266,
      "сыпа": 3267,
      "фараэ": 3268,
      "дорога</w>": 3269,
      "дороге</w>": 3270,
      "однажды</w>": 3271,
      "волны</w>": 3272,
      "демоны</w>": 3273,
      "демонов</w>": 3274,
      "неокроплен": 3275,
      "призраков</w>": 3276,
      "власть</w>": 3277,
      "временно</w>": 3278,
      "произо": 3279,
      "резуль": 3280,
      "сомнева": 3281,
      "деревьев</w>": 3282,
      "камень</w>": 3283,
      "копья</w>": 3284,
      "бессмыс": 3285,
      "темные</w>": 3286,
      "другим</w>": 3287,
      "следовало</w>": 3288,
      "улицы</w>": 3289,
      "главный</w>": 3290,
      "чувство</w>": 3291,
      "звуки</w>": 3292,
      "появился</w>": 3293,
      "корабли</w>": 3294,
      "сильно</w>": 3295,
      "дшеки</w>": 3296,
      "помощь</w>": 3297,
      "зале</w>": 3298,
      "обязательно</w>": 3299,
      "раздался</w>": 3300,
      "лезвие</w>": 3301,
      "крепости</w>": 3302,
      "фыр": 3303,
      "результа": 3304,
      "ассей": 3305,
      "вку</w>": 3306,
      "ге": 3307,
      "жале": 3308,
      "мли</w>": 3309,
      "нку</w>": 3310,
      "озна": 3311,
      "оско": 3312,
      "осле": 3313,
      "сен": 3314,
      "сче": 3315,
      "схва": 3316,
      "тный</w>": 3317,
      "упер": 3318,
      "хло": 3319,
      "хле": 3320,
      "цей</w>": 3321,
      "шке</w>": 3322,
      "яться</w>": 3323,
      "поговорить</w>": 3324,
      "рода</w>": 3325,
      "накло": 3326,
      "капита": 3327,
      "никак</w>": 3328,
      "замер": 3329,
      "теп": 3330,
      "телем</w>": 3331,
      "док": 3332,
      "доказа": 3333,
      "ваются</w>": 3334,
      "гораз": 3335,
      "голу": 3336,
      "видят</w>": 3337,
      "дам</w>": 3338,
      "сохрани": 3339,
      "вела</w>": 3340,
      "вечно</w>": 3341,
      "бол": 3342,
      "боги</w>": 3343,
      "мест": 3344,
      "пришла</w>": 3345,
      "мар": 3346,
      "маги</w>": 3347,
      "стои": 3348,
      "беспокой": 3349,
      "жие</w>": 3350,
      "верши": 3351,
      "чается</w>": 3352,
      "силой</w>": 3353,
      "бур": 3354,
      "шесть</w>": 3355,
      "судя</w>": 3356,
      "расы": 3357,
      "бави": 3358,
      "брал</w>": 3359,
      "тельной</w>": 3360,
      "королю</w>": 3361,
      "хал</w>": 3362,
      "стить</w>": 3363,
      "говори</w>": 3364,
      "лицу</w>": 3365,
      "гую</w>": 3366,
      "пыли</w>": 3367,
      "твоей</w>": 3368,
      "ханради</w>": 3369,
      "ходить</w>": 3370,
      "теней</w>": 3371,
      "черного</w>": 3372,
      "начали</w>": 3373,
      "стен</w>": 3374,
      "полож": 3375,
      "дерево</w>": 3376,
      "стену</w>": 3377,
      "помочь</w>": 3378,
      "улыбкой</w>": 3379,
      "понимал</w>": 3380,
      "трид": 3381,
      "должна</w>": 3382,
      "несчаст": 3383,
      "имеет</w>": 3384,
      "существо": 3385,
      "ворот</w>": 3386,
      "чувстви": 3387,
      "ужас</w>": 3388,
      "канала</w>": 3389,
      "отоз": 3390,
      "следова": 3391,
      "магии</w>": 3392,
      "кровавый</w>": 3393,
      "семь</w>": 3394,
      "опустил</w>": 3395,
      "одежду</w>": 3396,
      "старший</w>": 3397,
      "дождя</w>": 3398,
      "судьба</w>": 3399,
      "использо": 3400,
      "давным</w>": 3401,
      "чародейство</w>": 3402,
      "естествен": 3403,
      "направился</w>": 3404,
      "разум</w>": 3405,
      "довольно</w>": 3406,
      "яггу": 3407,
      "одновременно</w>": 3408,
      "большинство</w>": 3409,
      "равновеси": 3410,
      "гораздо</w>": 3411,
      "ан</w>": 3412,
      "вь": 3413,
      "вместо</w>": 3414,
      "гри": 3415,
      "жало": 3416,
      "нта</w>": 3417,
      "оказа": 3418,
      "оцени": 3419,
      "снару": 3420,
      "тная</w>": 3421,
      "ува": 3422,
      "уча": 3423,
      "цвет": 3424,
      "ько</w>": 3425,
      "ят</w>": 3426,
      "сть": 3427,
      "пона": 3428,
      "поля": 3429,
      "поры</w>": 3430,
      "подумать</w>": 3431,
      "почувствовал</w>": 3432,
      "напротив</w>": 3433,
      "налож": 3434,
      "воде</w>": 3435,
      "алле": 3436,
      "кать</w>": 3437,
      "нести</w>": 3438,
      "неизвест": 3439,
      "недалеко</w>": 3440,
      "необходи": 3441,
      "решение</w>": 3442,
      "мость</w>": 3443,
      "мост</w>": 3444,
      "зав": 3445,
      "замол": 3446,
      "задум": 3447,
      "тел</w>": 3448,
      "лан</w>": 3449,
      "доби": 3450,
      "лес</w>": 3451,
      "леги": 3452,
      "вав</w>": 3453,
      "вашего</w>": 3454,
      "год</w>": 3455,
      "таре": 3456,
      "таком</w>": 3457,
      "прочи": 3458,
      "тив</w>": 3459,
      "прищу": 3460,
      "пришли</w>": 3461,
      "ческой</w>": 3462,
      "чиво</w>": 3463,
      "бун</w>": 3464,
      "пару": 3465,
      "тьмы</w>": 3466,
      "гам</w>": 3467,
      "знают</w>": 3468,
      "подроб": 3469,
      "глад": 3470,
      "рассе": 3471,
      "баз</w>": 3472,
      "ждали</w>": 3473,
      "тельных</w>": 3474,
      "голоса</w>": 3475,
      "одним</w>": 3476,
      "жено</w>": 3477,
      "ске</w>": 3478,
      "остается</w>": 3479,
      "ответить</w>": 3480,
      "твоих</w>": 3481,
      "трона</w>": 3482,
      "вят</w>": 3483,
      "можете</w>": 3484,
      "замеча": 3485,
      "женщину</w>": 3486,
      "поняла</w>": 3487,
      "внутр": 3488,
      "ормли</w>": 3489,
      "волна</w>": 3490,
      "остановить</w>": 3491,
      "хотела</w>": 3492,
      "умереть</w>": 3493,
      "бинадаса</w>": 3494,
      "стрем": 3495,
      "желания</w>": 3496,
      "компа": 3497,
      "помнил</w>": 3498,
      "пойдем</w>": 3499,
      "улице</w>": 3500,
      "никакого</w>": 3501,
      "чувствовала</w>": 3502,
      "кораблей</w>": 3503,
      "спраши": 3504,
      "носились</w>": 3505,
      "четыре": 3506,
      "считать</w>": 3507,
      "цвета</w>": 3508,
      "хебаз</w>": 3509,
      "истории</w>": 3510,
      "основ": 3511,
      "поверхности</w>": 3512,
      "хмыкнул</w>": 3513,
      "выражение</w>": 3514,
      "господи": 3515,
      "тюленей</w>": 3516,
      "синецве": 3517,
      "вздрогнул</w>": 3518,
      "крысоло": 3519,
      "сушеный</w>": 3520,
      "говорю</w>": 3521,
      "снаружи</w>": 3522,
      "внутрь</w>": 3523,
      "вся</w>": 3524,
      "гно": 3525,
      "джа": 3526,
      "жь</w>": 3527,
      "йста</w>": 3528,
      "млад": 3529,
      "нью</w>": 3530,
      "ос": 3531,
      "осе": 3532,
      "осве": 3533,
      "сцен": 3534,
      "счет</w>": 3535,
      "салл</w>": 3536,
      "чное</w>": 3537,
      "юно": 3538,
      "стя</w>": 3539,
      "ств</w>": 3540,
      "сталь": 3541,
      "стья</w>": 3542,
      "поки": 3543,
      "поля</w>": 3544,
      "пости": 3545,
      "пошли</w>": 3546,
      "порази": 3547,
      "попытался</w>": 3548,
      "ран</w>": 3549,
      "рад</w>": 3550,
      "наи": 3551,
      "налл</w>": 3552,
      "кожи</w>": 3553,
      "вому</w>": 3554,
      "алы</w>": 3555,
      "ниж": 3556,
      "нисалл</w>": 3557,
      "зать</w>": 3558,
      "запре": 3559,
      "запла": 3560,
      "закри": 3561,
      "донесся</w>": 3562,
      "вашей</w>": 3563,
      "дет": 3564,
      "вивал</w>": 3565,
      "лью</w>": 3566,
      "диться</w>": 3567,
      "сосредото": 3568,
      "выдо": 3569,
      "мастер": 3570,
      "белый</w>": 3571,
      "рыба": 3572,
      "сив": 3573,
      "разобра": 3574,
      "пать</w>": 3575,
      "кур": 3576,
      "куль": 3577,
      "жая</w>": 3578,
      "мило": 3579,
      "суме": 3580,
      "рассу": 3581,
      "правой</w>": 3582,
      "терпе": 3583,
      "возро": 3584,
      "посре": 3585,
      "тельства</w>": 3586,
      "руладу</w>": 3587,
      "страж": 3588,
      "большую</w>": 3589,
      "чено</w>": 3590,
      "держал</w>": 3591,
      "говорили</w>": 3592,
      "можем</w>": 3593,
      "пламя</w>": 3594,
      "стых</w>": 3595,
      "позвал</w>": 3596,
      "двор</w>": 3597,
      "волю</w>": 3598,
      "войска</w>": 3599,
      "ведьмы</w>": 3600,
      "правду</w>": 3601,
      "высокий</w>": 3602,
      "аквито": 3603,
      "желание</w>": 3604,
      "восхи": 3605,
      "сомнения</w>": 3606,
      "ческие</w>": 3607,
      "верей</w>": 3608,
      "успели</w>": 3609,
      "удоб": 3610,
      "громко</w>": 3611,
      "ждая</w>": 3612,
      "колено</w>": 3613,
      "благосло": 3614,
      "согласен</w>": 3615,
      "ходят</w>": 3616,
      "опустился</w>": 3617,
      "битва</w>": 3618,
      "самый</w>": 3619,
      "удалось</w>": 3620,
      "торговец</w>": 3621,
      "обнаружил</w>": 3622,
      "мужчина</w>": 3623,
      "сереб": 3624,
      "капю": 3625,
      "батальон</w>": 3626,
      "пожалуйста</w>": 3627,
      "уставился</w>": 3628,
      "дюжины</w>": 3629,
      "преры": 3630,
      "сообщи": 3631,
      "смотря</w>": 3632,
      "прошептал</w>": 3633,
      "половину</w>": 3634,
      "центре</w>": 3635,
      "эмурланн</w>": 3636,
      "воспомина": 3637,
      "чудовищ": 3638,
      "быстрее</w>": 3639,
      "джаналл</w>": 3640,
      "ам</w>": 3641,
      "ждут</w>": 3642,
      "здоро": 3643,
      "йдя</w>": 3644,
      "окроплен": 3645,
      "озер": 3646,
      "скро": 3647,
      "сали</w>": 3648,
      "спря": 3649,
      "узнал</w>": 3650,
      "увидеть</w>": 3651,
      "фен": 3652,
      "хлы": 3653,
      "шра": 3654,
      "постро": 3655,
      "потря": 3656,
      "намере": 3657,
      "коль": 3658,
      "кожу</w>": 3659,
      "води": 3660,
      "воск": 3661,
      "новые</w>": 3662,
      "кат": 3663,
      "ката": 3664,
      "моря": 3665,
      "монет</w>": 3666,
      "запол": 3667,
      "телями</w>": 3668,
      "лок</w>": 3669,
      "довер": 3670,
      "вае": 3671,
      "ваша</w>": 3672,
      "вайте</w>": 3673,
      "нулось</w>": 3674,
      "таи": 3675,
      "проце": 3676,
      "пробле": 3677,
      "протянул</w>": 3678,
      "прощения</w>": 3679,
      "дитя</w>": 3680,
      "бом</w>": 3681,
      "мец</w>": 3682,
      "выда": 3683,
      "выйдет</w>": 3684,
      "хотят</w>": 3685,
      "присоеди": 3686,
      "душ": 3687,
      "отвра": 3688,
      "отлич": 3689,
      "станут</w>": 3690,
      "частью</w>": 3691,
      "сия": 3692,
      "силу": 3693,
      "разде": 3694,
      "разом</w>": 3695,
      "сан": 3696,
      "щими</w>": 3697,
      "знали</w>": 3698,
      "пела</w>": 3699,
      "бил</w>": 3700,
      "шагал</w>": 3701,
      "рассме": 3702,
      "рассматри": 3703,
      "теря": 3704,
      "тельное</w>": 3705,
      "словами</w>": 3706,
      "всему</w>": 3707,
      "голод</w>": 3708,
      "другую</w>": 3709,
      "мусо": 3710,
      "летера</w>": 3711,
      "чены</w>": 3712,
      "предна": 3713,
      "бросила</w>": 3714,
      "смотри": 3715,
      "тром</w>": 3716,
      "ходил</w>": 3717,
      "безум": 3718,
      "летерийца</w>": 3719,
      "правильно</w>": 3720,
      "полукров": 3721,
      "двига": 3722,
      "крик</w>": 3723,
      "которому</w>": 3724,
      "беддикта</w>": 3725,
      "позже</w>": 3726,
      "ствовал</w>": 3727,
      "мяте": 3728,
      "понимаешь</w>": 3729,
      "готовы</w>": 3730,
      "должник</w>": 3731,
      "спать</w>": 3732,
      "владе": 3733,
      "десят": 3734,
      "ющее</w>": 3735,
      "болез": 3736,
      "ужаса</w>": 3737,
      "ветра</w>": 3738,
      "влен</w>": 3739,
      "стях</w>": 3740,
      "императором</w>": 3741,
      "ческий</w>": 3742,
      "помню</w>": 3743,
      "открыл</w>": 3744,
      "массив": 3745,
      "тяжело</w>": 3746,
      "наблюдал</w>": 3747,
      "видне": 3748,
      "потерял</w>": 3749,
      "подозри": 3750,
      "судьбу</w>": 3751,
      "окружа": 3752,
      "искать</w>": 3753,
      "квилласа</w>": 3754,
      "ладонь</w>": 3755,
      "противополож": 3756,
      "поверхность</w>": 3757,
      "колонны</w>": 3758,
      "хотите</w>": 3759,
      "гарниз": 3760,
      "дыхание</w>": 3761,
      "острие</w>": 3762,
      "силкас</w>": 3763,
      "канарт</w>": 3764,
      "разговари": 3765,
      "посреди</w>": 3766,
      "блен": 3767,
      "вшая</w>": 3768,
      "внеш": 3769,
      "вцепи": 3770,
      "жные</w>": 3771,
      "жку</w>": 3772,
      "зри": 3773,
      "зме": 3774,
      "иди": 3775,
      "имас": 3776,
      "кен": 3777,
      "оск": 3778,
      "оправ": 3779,
      "рь</w>": 3780,
      "сли": 3781,
      "сда": 3782,
      "схвати": 3783,
      "тным</w>": 3784,
      "ткнул</w>": 3785,
      "щу</w>": 3786,
      "ятся</w>": 3787,
      "стно</w>": 3788,
      "пола": 3789,
      "поправи": 3790,
      "попыт": 3791,
      "рабы": 3792,
      "ранен": 3793,
      "ровал</w>": 3794,
      "наступи": 3795,
      "направля": 3796,
      "называ": 3797,
      "воп": 3798,
      "алу</w>": 3799,
      "какого</w>": 3800,
      "неве": 3801,
      "незаме": 3802,
      "рука": 3803,
      "реша": 3804,
      "могу": 3805,
      "ложил</w>": 3806,
      "добы": 3807,
      "доме</w>": 3808,
      "лежа": 3809,
      "девя": 3810,
      "детей</w>": 3811,
      "тают</w>": 3812,
      "проры": 3813,
      "прогре": 3814,
      "вели</w>": 3815,
      "бое": 3816,
      "боя</w>": 3817,
      "выйти</w>": 3818,
      "тилась</w>": 3819,
      "прика": 3820,
      "пример": 3821,
      "чет": 3822,
      "челю": 3823,
      "села</w>": 3824,
      "седь": 3825,
      "мал</w>": 3826,
      "мами</w>": 3827,
      "маэль</w>": 3828,
      "ениям</w>": 3829,
      "отряд</w>": 3830,
      "жился</w>": 3831,
      "вернется</w>": 3832,
      "шили</w>": 3833,
      "чай</w>": 3834,
      "часто</w>": 3835,
      "разные</w>": 3836,
      "шему</w>": 3837,
      "нях</w>": 3838,
      "пик": 3839,
      "лыш": 3840,
      "лыми</w>": 3841,
      "крыши</w>": 3842,
      "крысы</w>": 3843,
      "послыш": 3844,
      "ждала</w>": 3845,
      "тельного</w>": 3846,
      "слов</w>": 3847,
      "вшим</w>": 3848,
      "страх</w>": 3849,
      "жена</w>": 3850,
      "тяги": 3851,
      "ведли": 3852,
      "ющими</w>": 3853,
      "ющихся</w>": 3854,
      "держать</w>": 3855,
      "твою</w>": 3856,
      "троне</w>": 3857,
      "тропы</w>": 3858,
      "замер</w>": 3859,
      "летерийские</w>": 3860,
      "начало</w>": 3861,
      "горожа": 3862,
      "свете</w>": 3863,
      "ударов</w>": 3864,
      "инстру": 3865,
      "пустил</w>": 3866,
      "жизнен": 3867,
      "убь": 3868,
      "готови": 3869,
      "имена</w>": 3870,
      "бери</w>": 3871,
      "десяти</w>": 3872,
      "форкру": 3873,
      "собственной</w>": 3874,
      "императору</w>": 3875,
      "источ": 3876,
      "улицу</w>": 3877,
      "смысла</w>": 3878,
      "никам</w>": 3879,
      "взять</w>": 3880,
      "появилась</w>": 3881,
      "широко</w>": 3882,
      "гнез": 3883,
      "комнату</w>": 3884,
      "гварди": 3885,
      "крепко</w>": 3886,
      "получится</w>": 3887,
      "очередь</w>": 3888,
      "мышцы</w>": 3889,
      "всяком</w>": 3890,
      "сража": 3891,
      "столк": 3892,
      "естественно</w>": 3893,
      "состоянии</w>": 3894,
      "многое</w>": 3895,
      "печат": 3896,
      "оставив</w>": 3897,
      "очевидно</w>": 3898,
      "насеко": 3899,
      "последо": 3900,
      "вероятно</w>": 3901,
      "включая</w>": 3902,
      "поклоня": 3903,
      "отозвался</w>": 3904,
      "прищури": 3905,
      "господин</w>": 3906,
      "ад": 3907,
      "вход</w>": 3908,
      "вмеш": 3909,
      "дная</w>": 3910,
      "зло</w>": 3911,
      "ить</w>": 3912,
      "клу": 3913,
      "лка</w>": 3914,
      "нение</w>": 3915,
      "нным</w>": 3916,
      "сну": 3917,
      "устро": 3918,
      "флан": 3919,
      "чне": 3920,
      "шпи": 3921,
      "стал": 3922,
      "стри": 3923,
      "пожи": 3924,
      "попа": 3925,
      "пожа": 3926,
      "пошла</w>": 3927,
      "поближе</w>": 3928,
      "ера</w>": 3929,
      "кош": 3930,
      "енные</w>": 3931,
      "енной</w>": 3932,
      "номи": 3933,
      "ногу</w>": 3934,
      "ногах</w>": 3935,
      "нили</w>": 3936,
      "нила</w>": 3937,
      "неизбе": 3938,
      "несмотря</w>": 3939,
      "рец</w>": 3940,
      "рилл</w>": 3941,
      "мосто": 3942,
      "мости</w>": 3943,
      "моим</w>": 3944,
      "закон": 3945,
      "застави": 3946,
      "телом</w>": 3947,
      "течет</w>": 3948,
      "лоб</w>": 3949,
      "догово": 3950,
      "леса</w>": 3951,
      "проши": 3952,
      "дах</w>": 3953,
      "дится</w>": 3954,
      "сох": 3955,
      "сот</w>": 3956,
      "мечи</w>": 3957,
      "выбира": 3958,
      "присел</w>": 3959,
      "душе</w>": 3960,
      "бые</w>": 3961,
      "отре": 3962,
      "отвле": 3963,
      "стать</w>": 3964,
      "жий</w>": 3965,
      "верх": 3966,
      "шить</w>": 3967,
      "части</w>": 3968,
      "кин": 3969,
      "чит</w>": 3970,
      "сит</w>": 3971,
      "сирень</w>": 3972,
      "лям</w>": 3973,
      "разбу": 3974,
      "сапо": 3975,
      "тье</w>": 3976,
      "гада": 3977,
      "знаете</w>": 3978,
      "трупов</w>": 3979,
      "мися</w>": 3980,
      "шаги</w>": 3981,
      "скочил</w>": 3982,
      "фиру</w>": 3983,
      "посла": 3984,
      "глянул</w>": 3985,
      "хами</w>": 3986,
      "бриза": 3987,
      "друж": 3988,
      "долг</w>": 3989,
      "говоря</w>": 3990,
      "женных</w>": 3991,
      "служ": 3992,
      "служи": 3993,
      "большая</w>": 3994,
      "большие</w>": 3995,
      "оставалось</w>": 3996,
      "следом</w>": 3997,
      "племя</w>": 3998,
      "цеп": 3999,
      "ченных</w>": 4000,
      "предста": 4001,
      "круп": 4002,
      "ответ": 4003,
      "делает</w>": 4004,
      "твор": 4005,
      "цах</w>": 4006,
      "цара": 4007,
      "ходила</w>": 4008,
      "безжизнен": 4009,
      "черные</w>": 4010,
      "летерийской</w>": 4011,
      "убивать</w>": 4012,
      "беддик": 4013,
      "алей": 4014,
      "появля": 4015,
      "пустить</w>": 4016,
      "помога": 4017,
      "посмотри</w>": 4018,
      "посмотри": 4019,
      "видит</w>": 4020,
      "высокая</w>": 4021,
      "хотели</w>": 4022,
      "бледного</w>": 4023,
      "колоко": 4024,
      "канал</w>": 4025,
      "внимательно</w>": 4026,
      "смысл</w>": 4027,
      "камня</w>": 4028,
      "бросился</w>": 4029,
      "мрак</w>": 4030,
      "жестом</w>": 4031,
      "клады": 4032,
      "смертный</w>": 4033,
      "языке</w>": 4034,
      "дворца</w>": 4035,
      "ярость</w>": 4036,
      "богат": 4037,
      "тартеналов</w>": 4038,
      "лестнице</w>": 4039,
      "матери</w>": 4040,
      "слышала</w>": 4041,
      "вкус</w>": 4042,
      "искус": 4043,
      "близко</w>": 4044,
      "горизо": 4045,
      "цитадели</w>": 4046,
      "хозяина</w>": 4047,
      "деньги</w>": 4048,
      "одоле": 4049,
      "крысоловов</w>": 4050,
      "намерен</w>": 4051,
      "воскли": 4052,
      "кенрилл</w>": 4053,
      "ап": 4054,
      "брыз": 4055,
      "вение</w>": 4056,
      "гла</w>": 4057,
      "гались</w>": 4058,
      "дверей</w>": 4059,
      "жной</w>": 4060,
      "иди</w>": 4061,
      "кта": 4062,
      "нт": 4063,
      "нне": 4064,
      "нное</w>": 4065,
      "ок": 4066,
      "ока": 4067,
      "отор": 4068,
      "осла": 4069,
      "рта</w>": 4070,
      "сза": 4071,
      "ску</w>": 4072,
      "смени": 4073,
      "уч": 4074,
      "ушел</w>": 4075,
      "ушли</w>": 4076,
      "ухвати": 4077,
      "увидела</w>": 4078,
      "хнув</w>": 4079,
      "чением</w>": 4080,
      "шле": 4081,
      "шку": 4082,
      "ьем</w>": 4083,
      "стот": 4084,
      "пом</w>": 4085,
      "постара": 4086,
      "рах</w>": 4087,
      "рано</w>": 4088,
      "ровать</w>": 4089,
      "назы": 4090,
      "енная</w>": 4091,
      "вон": 4092,
      "водо": 4093,
      "вожд": 4094,
      "тобла": 4095,
      "новой</w>": 4096,
      "каби": 4097,
      "караб": 4098,
      "какую</w>": 4099,
      "кашля": 4100,
      "неви": 4101,
      "непро": 4102,
      "непре": 4103,
      "нечего</w>": 4104,
      "некоторые</w>": 4105,
      "неров": 4106,
      "некал</w>": 4107,
      "рухнул</w>": 4108,
      "рели": 4109,
      "зай": 4110,
      "зами</w>": 4111,
      "зага": 4112,
      "заби": 4113,
      "заба": 4114,
      "тен</w>": 4115,
      "добро": 4116,
      "леж": 4117,
      "лесу</w>": 4118,
      "ваших</w>": 4119,
      "деви": 4120,
      "нутся</w>": 4121,
      "виз": 4122,
      "вино</w>": 4123,
      "лиз": 4124,
      "прошла</w>": 4125,
      "промолчал</w>": 4126,
      "дила</w>": 4127,
      "дились</w>": 4128,
      "собе": 4129,
      "соба": 4130,
      "веду": 4131,
      "бои": 4132,
      "мей": 4133,
      "мет</w>": 4134,
      "тих": 4135,
      "титься</w>": 4136,
      "пример</w>": 4137,
      "отступи": 4138,
      "стол</w>": 4139,
      "бен</w>": 4140,
      "вернулась</w>": 4141,
      "силах</w>": 4142,
      "разно": 4143,
      "сах</w>": 4144,
      "мена</w>": 4145,
      "жей": 4146,
      "жем</w>": 4147,
      "предо": 4148,
      "знак</w>": 4149,
      "скать</w>": 4150,
      "няет</w>": 4151,
      "подтвер": 4152,
      "права</w>": 4153,
      "бран": 4154,
      "своему</w>": 4155,
      "тельность</w>": 4156,
      "всеми</w>": 4157,
      "одни</w>": 4158,
      "удинаасу</w>": 4159,
      "друз": 4160,
      "женный</w>": 4161,
      "чуж": 4162,
      "плетен": 4163,
      "тями</w>": 4164,
      "цио": 4165,
      "целе": 4166,
      "ченный</w>": 4167,
      "предстоя": 4168,
      "брошен": 4169,
      "смотри</w>": 4170,
      "зов</w>": 4171,
      "щему</w>": 4172,
      "твоим</w>": 4173,
      "край</w>": 4174,
      "сность</w>": 4175,
      "испол": 4176,
      "повернул</w>": 4177,
      "чера</w>": 4178,
      "черты</w>": 4179,
      "поднялась</w>": 4180,
      "понятия</w>": 4181,
      "ствии</w>": 4182,
      "помор": 4183,
      "войне</w>": 4184,
      "обита": 4185,
      "толк": 4186,
      "высокого</w>": 4187,
      "последние</w>": 4188,
      "последнее</w>": 4189,
      "плит": 4190,
      "десяток</w>": 4191,
      "ворота</w>": 4192,
      "воротам</w>": 4193,
      "восхо": 4194,
      "форта</w>": 4195,
      "деревне</w>": 4196,
      "длинные</w>": 4197,
      "бросились</w>": 4198,
      "вопросы</w>": 4199,
      "обернулась</w>": 4200,
      "держит</w>": 4201,
      "королевского</w>": 4202,
      "народа</w>": 4203,
      "корабль</w>": 4204,
      "мраке</w>": 4205,
      "пороге</w>": 4206,
      "эберикта</w>": 4207,
      "оказалось</w>": 4208,
      "пытаясь</w>": 4209,
      "самых</w>": 4210,
      "исчез</w>": 4211,
      "дшеков</w>": 4212,
      "империя</w>": 4213,
      "холодный</w>": 4214,
      "оружей": 4215,
      "язык</w>": 4216,
      "совет</w>": 4217,
      "зверя</w>": 4218,
      "атаку</w>": 4219,
      "хотим</w>": 4220,
      "разглядеть</w>": 4221,
      "разговор</w>": 4222,
      "лошадей</w>": 4223,
      "торопли": 4224,
      "тишина</w>": 4225,
      "противника</w>": 4226,
      "силуэ": 4227,
      "санд": 4228,
      "гарнизон</w>": 4229,
      "сзади</w>": 4230,
      "собесед": 4231,
      "ал</w>": 4232,
      "бене": 4233,
      "вный</w>": 4234,
      "вшую</w>": 4235,
      "гнулся</w>": 4236,
      "дна</w>": 4237,
      "дку</w>": 4238,
      "дного</w>": 4239,
      "злове": 4240,
      "кла</w>": 4241,
      "опро": 4242,
      "пение</w>": 4243,
      "сс</w>": 4244,
      "сро": 4245,
      "сны</w>": 4246,
      "справи": 4247,
      "тных</w>": 4248,
      "тался</w>": 4249,
      "тались</w>": 4250,
      "уте": 4251,
      "хво": 4252,
      "щали</w>": 4253,
      "эта": 4254,
      "ющую</w>": 4255,
      "погля": 4256,
      "погру": 4257,
      "показ": 4258,
      "повел</w>": 4259,
      "попыта": 4260,
      "награ": 4261,
      "кос": 4262,
      "кост": 4263,
      "кова": 4264,
      "вод": 4265,
      "вок</w>": 4266,
      "новое</w>": 4267,
      "ниться</w>": 4268,
      "неде": 4269,
      "руба": 4270,
      "речь</w>": 4271,
      "мою</w>": 4272,
      "заним": 4273,
      "застря": 4274,
      "лову": 4275,
      "дож": 4276,
      "доли": 4277,
      "дому</w>": 4278,
      "дочер": 4279,
      "достой": 4280,
      "лежит</w>": 4281,
      "ваше</w>": 4282,
      "вился</w>": 4283,
      "лихо": 4284,
      "тан</w>": 4285,
      "тара": 4286,
      "дика": 4287,
      "менами</w>": 4288,
      "вызы": 4289,
      "вышла</w>": 4290,
      "вырази": 4291,
      "ходе</w>": 4292,
      "тира": 4293,
      "прибы": 4294,
      "придет</w>": 4295,
      "дую</w>": 4296,
      "душу</w>": 4297,
      "духи</w>": 4298,
      "отри": 4299,
      "относи": 4300,
      "стату": 4301,
      "бешен": 4302,
      "чат</w>": 4303,
      "обсу": 4304,
      "сих</w>": 4305,
      "разор": 4306,
      "развернулся</w>": 4307,
      "вслед</w>": 4308,
      "всад": 4309,
      "сами": 4310,
      "пау": 4311,
      "шел": 4312,
      "шек</w>": 4313,
      "шен</w>": 4314,
      "гава": 4315,
      "няка</w>": 4316,
      "валу": 4317,
      "куски</w>": 4318,
      "перча": 4319,
      "переста": 4320,
      "сукул</w>": 4321,
      "раски": 4322,
      "располо": 4323,
      "рассып": 4324,
      "третий</w>": 4325,
      "брату</w>": 4326,
      "тунне": 4327,
      "послан": 4328,
      "долго": 4329,
      "теголу</w>": 4330,
      "скла": 4331,
      "чена</w>": 4332,
      "предков</w>": 4333,
      "представить</w>": 4334,
      "ющиеся</w>": 4335,
      "твоего</w>": 4336,
      "говоришь</w>": 4337,
      "врагов</w>": 4338,
      "сына</w>": 4339,
      "летерийская</w>": 4340,
      "землей</w>": 4341,
      "свет": 4342,
      "положил</w>": 4343,
      "крикнул</w>": 4344,
      "борь": 4345,
      "глуб": 4346,
      "сэнгаров</w>": 4347,
      "пояс</w>": 4348,
      "дворе</w>": 4349,
      "многих</w>": 4350,
      "обоих</w>": 4351,
      "считы": 4352,
      "последнего</w>": 4353,
      "влад": 4354,
      "беру": 4355,
      "горь": 4356,
      "ступень": 4357,
      "временем</w>": 4358,
      "каменной</w>": 4359,
      "любопы": 4360,
      "продолжа": 4361,
      "отошел</w>": 4362,
      "казал</w>": 4363,
      "камней</w>": 4364,
      "бросить</w>": 4365,
      "сверху</w>": 4366,
      "смотрели</w>": 4367,
      "грязи</w>": 4368,
      "огляделся</w>": 4369,
      "нужны</w>": 4370,
      "древние</w>": 4371,
      "слушать</w>": 4372,
      "ребенка</w>": 4373,
      "единственный</w>": 4374,
      "старые</w>": 4375,
      "использу": 4376,
      "гнать</w>": 4377,
      "удивительно</w>": 4378,
      "капли</w>": 4379,
      "телохранителя</w>": 4380,
      "племени</w>": 4381,
      "предложить</w>": 4382,
      "личие</w>": 4383,
      "трейт</w>": 4384,
      "добавил</w>": 4385,
      "добавила</w>": 4386,
      "чьи</w>": 4387,
      "разглядел</w>": 4388,
      "сознание</w>": 4389,
      "беспомощ": 4390,
      "способен</w>": 4391,
      "молчание</w>": 4392,
      "повторя": 4393,
      "выбор</w>": 4394,
      "живет</w>": 4395,
      "лагерь</w>": 4396,
      "бригада</w>": 4397,
      "незнакомец</w>": 4398,
      "погреб": 4399,
      "сестры</w>": 4400,
      "доксов</w>": 4401,
      "паруса</w>": 4402,
      "рассмеялся</w>": 4403,
      "аппе": 4404,
      "тоблака": 4405,
      "брасы": 4406,
      "вник</w>": 4407,
      "впечат": 4408,
      "гры": 4409,
      "дный</w>": 4410,
      "ем": 4411,
      "жался</w>": 4412,
      "кал": 4413,
      "кала</w>": 4414,
      "нению</w>": 4415,
      "ох</w>": 4416,
      "охо": 4417,
      "сгу": 4418,
      "уро": 4419,
      "увиде": 4420,
      "утра": 4421,
      "успоко": 4422,
      "уров": 4423,
      "удержи": 4424,
      "узнать</w>": 4425,
      "шту": 4426,
      "щался</w>": 4427,
      "юще</w>": 4428,
      "ян": 4429,
      "яд</w>": 4430,
      "пок</w>": 4431,
      "пола</w>": 4432,
      "поры": 4433,
      "посту": 4434,
      "подума": 4435,
      "покор": 4436,
      "повели": 4437,
      "рам</w>": 4438,
      "раста": 4439,
      "рожден": 4440,
      "накры": 4441,
      "наше</w>": 4442,
      "енный</w>": 4443,
      "воли</w>": 4444,
      "нового</w>": 4445,
      "кан</w>": 4446,
      "како": 4447,
      "ницу</w>": 4448,
      "руи": 4449,
      "рух": 4450,
      "рей": 4451,
      "мосту</w>": 4452,
      "заз": 4453,
      "зато</w>": 4454,
      "задерж": 4455,
      "лови": 4456,
      "левую</w>": 4457,
      "ваешь</w>": 4458,
      "виде</w>": 4459,
      "лить</w>": 4460,
      "провали": 4461,
      "сожал": 4462,
      "сочувстви": 4463,
      "вечного</w>": 4464,
      "выко": 4465,
      "выру": 4466,
      "выходит</w>": 4467,
      "тили": 4468,
      "приста": 4469,
      "прими": 4470,
      "ческое</w>": 4471,
      "сей</w>": 4472,
      "сети</w>": 4473,
      "душа</w>": 4474,
      "отры": 4475,
      "отшат": 4476,
      "стоя</w>": 4477,
      "безо": 4478,
      "живых</w>": 4479,
      "шими</w>": 4480,
      "обви": 4481,
      "чила</w>": 4482,
      "лял</w>": 4483,
      "падет</w>": 4484,
      "зная</w>": 4485,
      "пещер": 4486,
      "няли</w>": 4487,
      "купе": 4488,
      "первую</w>": 4489,
      "пересе": 4490,
      "перевел</w>": 4491,
      "лены</w>": 4492,
      "избави": 4493,
      "возгла": 4494,
      "бара</w>": 4495,
      "удивля": 4496,
      "трейте</w>": 4497,
      "брать</w>": 4498,
      "тельности</w>": 4499,
      "слом": 4500,
      "всей</w>": 4501,
      "брису</w>": 4502,
      "мудро": 4503,
      "пыты": 4504,
      "ченная</w>": 4505,
      "предпочи": 4506,
      "смогу</w>": 4507,
      "шуюся</w>": 4508,
      "щал</w>": 4509,
      "ответа</w>": 4510,
      "держа</w>": 4511,
      "ханн</w>": 4512,
      "надцати</w>": 4513,
      "дыма</w>": 4514,
      "грохо": 4515,
      "заметили</w>": 4516,
      "безмяте": 4517,
      "мертве": 4518,
      "странный</w>": 4519,
      "летерийских</w>": 4520,
      "королем</w>": 4521,
      "получить</w>": 4522,
      "двинулись</w>": 4523,
      "стым</w>": 4524,
      "колдо": 4525,
      "дорогой</w>": 4526,
      "тради": 4527,
      "корни</w>": 4528,
      "поясе</w>": 4529,
      "поток</w>": 4530,
      "другом</w>": 4531,
      "другое</w>": 4532,
      "существует</w>": 4533,
      "центра": 4534,
      "воровка</w>": 4535,
      "времена</w>": 4536,
      "оружием</w>": 4537,
      "случай": 4538,
      "форт</w>": 4539,
      "собственного</w>": 4540,
      "каменные</w>": 4541,
      "любопыт": 4542,
      "любовь</w>": 4543,
      "башню</w>": 4544,
      "покрытый</w>": 4545,
      "золотом</w>": 4546,
      "другими</w>": 4547,
      "бросив</w>": 4548,
      "тяжелый</w>": 4549,
      "могло</w>": 4550,
      "поборника</w>": 4551,
      "предела</w>": 4552,
      "поколе": 4553,
      "спустя</w>": 4554,
      "значение</w>": 4555,
      "значения</w>": 4556,
      "метал": 4557,
      "гнев</w>": 4558,
      "ладони</w>": 4559,
      "занят</w>": 4560,
      "противостоять</w>": 4561,
      "прошлого</w>": 4562,
      "порядок</w>": 4563,
      "памяти</w>": 4564,
      "подчинен": 4565,
      "племена</w>": 4566,
      "увечный</w>": 4567,
      "принадлежит</w>": 4568,
      "глубине</w>": 4569,
      "присутствие</w>": 4570,
      "путешествие</w>": 4571,
      "сьма</w>": 4572,
      "умерла</w>": 4573,
      "беспокои": 4574,
      "барка": 4575,
      "ножны</w>": 4576,
      "благодарю</w>": 4577,
      "возникла</w>": 4578,
      "гильдия</w>": 4579,
      "посмотрела</w>": 4580,
      "отряда</w>": 4581,
      "лирован": 4582,
      "вечером</w>": 4583,
      "возразил</w>": 4584,
      "безумие</w>": 4585,
      "флотили": 4586,
      "послуша": 4587,
      "бессмыслен": 4588,
      "фыркнул</w>": 4589,
      "равновесие</w>": 4590,
      "прорычал</w>": 4591,
      "любопытно</w>": 4592,
      "увидев</w>": 4593,
      "втор": 4594,
      "вшуюся</w>": 4595,
      "гала</w>": 4596,
      "дне</w>": 4597,
      "дался</w>": 4598,
      "зря</w>": 4599,
      "ил": 4600,
      "итак</w>": 4601,
      "лений</w>": 4602,
      "осо": 4603,
      "окон": 4604,
      "оник": 4605,
      "пенно</w>": 4606,
      "сбе": 4607,
      "ским</w>": 4608,
      "скую</w>": 4609,
      "тка": 4610,
      "тную</w>": 4611,
      "уста": 4612,
      "уйти</w>": 4613,
      "уточ": 4614,
      "управля": 4615,
      "услышал</w>": 4616,
      "упор": 4617,
      "чали": 4618,
      "швыр": 4619,
      "шлем</w>": 4620,
      "элей": 4621,
      "похи": 4622,
      "раст": 4623,
      "раско": 4624,
      "нале": 4625,
      "наклони": 4626,
      "набок</w>": 4627,
      "навли": 4628,
      "коже</w>": 4629,
      "вор": 4630,
      "воле</w>": 4631,
      "тоном</w>": 4632,
      "каких</w>": 4633,
      "качестве</w>": 4634,
      "ниже</w>": 4635,
      "ней": 4636,
      "нен</w>": 4637,
      "немедленно</w>": 4638,
      "непреры": 4639,
      "некта": 4640,
      "рев</w>": 4641,
      "реаль": 4642,
      "рит": 4643,
      "зает</w>": 4644,
      "запи": 4645,
      "закру": 4646,
      "заверну": 4647,
      "заставля": 4648,
      "дох": 4649,
      "вана</w>": 4650,
      "ванием</w>": 4651,
      "дея": 4652,
      "нутые</w>": 4653,
      "вид</w>": 4654,
      "протя": 4655,
      "диа": 4656,
      "сообраз": 4657,
      "вер</w>": 4658,
      "весьма</w>": 4659,
      "бою</w>": 4660,
      "выле": 4661,
      "вышли</w>": 4662,
      "выяс": 4663,
      "тии</w>": 4664,
      "прино": 4665,
      "причем</w>": 4666,
      "ческая</w>": 4667,
      "ческого</w>": 4668,
      "маро": 4669,
      "дуби": 4670,
      "ениях</w>": 4671,
      "отдал": 4672,
      "стах</w>": 4673,
      "старой</w>": 4674,
      "чае": 4675,
      "рый</w>": 4676,
      "чился</w>": 4677,
      "читься</w>": 4678,
      "сидя": 4679,
      "буты": 4680,
      "ляет</w>": 4681,
      "самая</w>": 4682,
      "лую</w>": 4683,
      "пар": 4684,
      "шести</w>": 4685,
      "била</w>": 4686,
      "кубок</w>": 4687,
      "шага</w>": 4688,
      "пута": 4689,
      "пили</w>": 4690,
      "скоро": 4691,
      "финан": 4692,
      "распла": 4693,
      "мертво": 4694,
      "изобра": 4695,
      "возму": 4696,
      "крови": 4697,
      "тельница</w>": 4698,
      "одном</w>": 4699,
      "слугу</w>": 4700,
      "слухи</w>": 4701,
      "мую</w>": 4702,
      "остатки</w>": 4703,
      "оставил</w>": 4704,
      "останется</w>": 4705,
      "след</w>": 4706,
      "ченным</w>": 4707,
      "твори": 4708,
      "твоему</w>": 4709,
      "сят</w>": 4710,
      "алом</w>": 4711,
      "дым": 4712,
      "алат</w>": 4713,
      "испыты": 4714,
      "бедня": 4715,
      "мертвой</w>": 4716,
      "зил</w>": 4717,
      "врага</w>": 4718,
      "халлу</w>": 4719,
      "серые</w>": 4720,
      "черной</w>": 4721,
      "странные</w>": 4722,
      "плащ</w>": 4723,
      "убили</w>": 4724,
      "получил</w>": 4725,
      "молчали": 4726,
      "стыми</w>": 4727,
      "список</w>": 4728,
      "слышно</w>": 4729,
      "смертью</w>": 4730,
      "потоки</w>": 4731,
      "оборот</w>": 4732,
      "летел</w>": 4733,
      "видите</w>": 4734,
      "понимать</w>": 4735,
      "триба": 4736,
      "дене": 4737,
      "ствуют</w>": 4738,
      "остановились</w>": 4739,
      "ненно</w>": 4740,
      "дрожь</w>": 4741,
      "умре": 4742,
      "берега</w>": 4743,
      "покачала</w>": 4744,
      "хочется</w>": 4745,
      "свободы</w>": 4746,
      "случай</w>": 4747,
      "темне": 4748,
      "удовле": 4749,
      "вздохнула</w>": 4750,
      "чувствует</w>": 4751,
      "склонил</w>": 4752,
      "большого</w>": 4753,
      "неуклю": 4754,
      "сверка": 4755,
      "молодой</w>": 4756,
      "взяла</w>": 4757,
      "тяжелые</w>": 4758,
      "клина": 4759,
      "монетами</w>": 4760,
      "вленный</w>": 4761,
      "каждой</w>": 4762,
      "пятни": 4763,
      "пятна</w>": 4764,
      "тряс": 4765,
      "вернуться</w>": 4766,
      "самым</w>": 4767,
      "объявил</w>": 4768,
      "историю</w>": 4769,
      "дракона</w>": 4770,
      "потребо": 4771,
      "освободить</w>": 4772,
      "повезло</w>": 4773,
      "удивился</w>": 4774,
      "остальных</w>": 4775,
      "остальное</w>": 4776,
      "хулад</w>": 4777,
      "телохранитель</w>": 4778,
      "становится</w>": 4779,
      "осторож": 4780,
      "родствен": 4781,
      "жертвы</w>": 4782,
      "старик</w>": 4783,
      "прыгнул</w>": 4784,
      "извини</w>": 4785,
      "прилив</w>": 4786,
      "стремительно</w>": 4787,
      "темноте</w>": 4788,
      "маленькие</w>": 4789,
      "умерли</w>": 4790,
      "мозг</w>": 4791,
      "погоди</w>": 4792,
      "штаны</w>": 4793,
      "отлично</w>": 4794,
      "подозревал</w>": 4795,
      "хрип": 4796,
      "постепенно</w>": 4797,
      "бесчисленные</w>": 4798,
      "семьи</w>": 4799,
      "редко</w>": 4800,
      "помедлил</w>": 4801,
      "мекросов</w>": 4802,
      "достоин": 4803,
      "такова</w>": 4804,
      "возьми</w>": 4805,
      "фараэдов</w>": 4806,
      "оссер": 4807,
      "форкрул</w>": 4808,
      "гвардии</w>": 4809,
      "вмешался</w>": 4810,
      "сандалат</w>": 4811,
      "иллю": 4812,
      "?!</w>": 4813,
      "бь": 4814,
      "вне</w>": 4815,
      "вство</w>": 4816,
      "дня": 4817,
      "дное</w>": 4818,
      "дным</w>": 4819,
      "еле</w>": 4820,
      "йн</w>": 4821,
      "йка</w>": 4822,
      "лке</w>": 4823,
      "осу": 4824,
      "огра": 4825,
      "ограни": 4826,
      "пнул</w>": 4827,
      "празд": 4828,
      "сне</w>": 4829,
      "спя": 4830,
      "тало</w>": 4831,
      "усе": 4832,
      "ухмы": 4833,
      "хала": 4834,
      "цере": 4835,
      "чность</w>": 4836,
      "шлись</w>": 4837,
      "ыскать</w>": 4838,
      "пору": 4839,
      "поку": 4840,
      "порабо": 4841,
      "поклонился</w>": 4842,
      "нави": 4843,
      "напи": 4844,
      "написа": 4845,
      "наконеч": 4846,
      "напада": 4847,
      "наполовину</w>": 4848,
      "вообра": 4849,
      "тори": 4850,
      "нова": 4851,
      "новая</w>": 4852,
      "ничто</w>": 4853,
      "нец</w>": 4854,
      "несу": 4855,
      "небольшой</w>": 4856,
      "ритори": 4857,
      "мок": 4858,
      "мок</w>": 4859,
      "мока": 4860,
      "забыл</w>": 4861,
      "задолго</w>": 4862,
      "заговорила</w>": 4863,
      "лам": 4864,
      "довал</w>": 4865,
      "ваем</w>": 4866,
      "вающие</w>": 4867,
      "вашим</w>": 4868,
      "визи": 4869,
      "лик</w>": 4870,
      "льной</w>": 4871,
      "тах</w>": 4872,
      "проро": 4873,
      "просе": 4874,
      "промол": 4875,
      "проход</w>": 4876,
      "проник": 4877,
      "прошло</w>": 4878,
      "дился</w>": 4879,
      "дилась</w>": 4880,
      "сой</w>": 4881,
      "сон</w>": 4882,
      "содро": 4883,
      "сосед": 4884,
      "боку</w>": 4885,
      "мести</w>": 4886,
      "меся": 4887,
      "вый": 4888,
      "выса": 4889,
      "выдер": 4890,
      "хой</w>": 4891,
      "тихи": 4892,
      "принес</w>": 4893,
      "чешу": 4894,
      "чейн</w>": 4895,
      "дур": 4896,
      "отступ": 4897,
      "стое</w>": 4898,
      "стола</w>": 4899,
      "бег": 4900,
      "бежен": 4901,
      "белые</w>": 4902,
      "шит</w>": 4903,
      "облом": 4904,
      "бух": 4905,
      "бую</w>": 4906,
      "буре": 4907,
      "разда": 4908,
      "разме": 4909,
      "разум": 4910,
      "разброса": 4911,
      "само</w>": 4912,
      "пара": 4913,
      "шеве": 4914,
      "скам": 4915,
      "скажу</w>": 4916,
      "песок</w>": 4917,
      "били</w>": 4918,
      "трупы</w>": 4919,
      "мир": 4920,
      "шает</w>": 4921,
      "подзем": 4922,
      "передай</w>": 4923,
      "пир": 4924,
      "практи": 4925,
      "изум": 4926,
      "территори": 4927,
      "бах</w>": 4928,
      "крышу</w>": 4929,
      "жди</w>": 4930,
      "слови": 4931,
      "голосе</w>": 4932,
      "хара": 4933,
      "страшно</w>": 4934,
      "полдюжины</w>": 4935,
      "целый</w>": 4936,
      "предлага": 4937,
      "ющийся</w>": 4938,
      "делал</w>": 4939,
      "осталась</w>": 4940,
      "щен</w>": 4941,
      "императри": 4942,
      "цам</w>": 4943,
      "заметить</w>": 4944,
      "мертвый</w>": 4945,
      "зила</w>": 4946,
      "черепа</w>": 4947,
      "черное</w>": 4948,
      "странное</w>": 4949,
      "поднялись</w>": 4950,
      "стер</w>": 4951,
      "стели</w>": 4952,
      "удары</w>": 4953,
      "слышу</w>": 4954,
      "появления</w>": 4955,
      "ствовали</w>": 4956,
      "рабство</w>": 4957,
      "волки</w>": 4958,
      "демон": 4959,
      "торже": 4960,
      "улыбнулась</w>": 4961,
      "ведьму</w>": 4962,
      "сред": 4963,
      "встречи</w>": 4964,
      "остановилась</w>": 4965,
      "этими</w>": 4966,
      "показал</w>": 4967,
      "ступен": 4968,
      "оружия</w>": 4969,
      "произнесла</w>": 4970,
      "квадра": 4971,
      "потери</w>": 4972,
      "желаю</w>": 4973,
      "воск</w>": 4974,
      "деревья</w>": 4975,
      "собственный</w>": 4976,
      "ванные</w>": 4977,
      "пытались</w>": 4978,
      "победа</w>": 4979,
      "пойду</w>": 4980,
      "надеяться</w>": 4981,
      "главного</w>": 4982,
      "большо": 4983,
      "следующий</w>": 4984,
      "наблюдать</w>": 4985,
      "наверняка</w>": 4986,
      "интересо": 4987,
      "одея": 4988,
      "предатель</w>": 4989,
      "оглянулся</w>": 4990,
      "древних</w>": 4991,
      "недоступ": 4992,
      "недоволь": 4993,
      "ступай</w>": 4994,
      "спокойно</w>": 4995,
      "восток</w>": 4996,
      "холма</w>": 4997,
      "момента</w>": 4998,
      "скользнул</w>": 4999,
      "строить</w>": 5000,
      "выбрал</w>": 5001,
      "драконы</w>": 5002,
      "ктив": 5003,
      "помощью</w>": 5004,
      "залу</w>": 5005,
      "каждым</w>": 5006,
      "дворцо": 5007,
      "зверь</w>": 5008,
      "обязан": 5009,
      "панг</w>": 5010,
      "изменилось</w>": 5011,
      "текла</w>": 5012,
      "коридор</w>": 5013,
      "батальона</w>": 5014,
      "одиночестве</w>": 5015,
      "подчиня": 5016,
      "группа</w>": 5017,
      "встать</w>": 5018,
      "приходилось</w>": 5019,
      "возможность</w>": 5020,
      "ненави": 5021,
      "рукоя": 5022,
      "рукоять</w>": 5023,
      "приблизился</w>": 5024,
      "возвыш": 5025,
      "официаль": 5026,
      "сделали</w>": 5027,
      "новости</w>": 5028,
      "туман</w>": 5029,
      "благородных</w>": 5030,
      "королевство</w>": 5031,
      "неподвиж": 5032,
      "простите</w>": 5033,
      "контракт</w>": 5034,
      "вечер</w>": 5035,
      "проявля": 5036,
      "очага</w>": 5037,
      "старого</w>": 5038,
      "линзы</w>": 5039,
      "усмехнулся</w>": 5040,
      "расстоянии</w>": 5041,
      "требуется</w>": 5042,
      "гигант": 5043,
      "означает</w>": 5044,
      "наклонил</w>": 5045,
      "беспокойство</w>": 5046,
      "использовать</w>": 5047,
      "понадоби": 5048,
      "наложница</w>": 5049,
      "завтра</w>": 5050,
      "гнол</w>": 5051,
      "юноша</w>": 5052,
      "закричал</w>": 5053,
      "аквитора</w>": 5054,
      "фентов</w>": 5055,
      "катастро": 5056,
      "могуще": 5057,
      "колокола</w>": 5058,
      "бранс</w>": 5059,
      "торопливо</w>": 5060,
      "дочери</w>": 5061,
      "отрица": 5062,
      "церемо": 5063,
      "вщи": 5064,
      "вгля": 5065,
      "вения</w>": 5066,
      "вчера</w>": 5067,
      "гнуть</w>": 5068,
      "дность</w>": 5069,
      "зала</w>": 5070,
      "звез": 5071,
      "йди</w>": 5072,
      "кну": 5073,
      "мало": 5074,
      "малей": 5075,
      "нкой</w>": 5076,
      "нке</w>": 5077,
      "оку": 5078,
      "обез": 5079,
      "означ": 5080,
      "опоры</w>": 5081,
      "пались</w>": 5082,
      "рко": 5083,
      "рчал</w>": 5084,
      "тны</w>": 5085,
      "тками</w>": 5086,
      "устал</w>": 5087,
      "услыша": 5088,
      "утвер": 5089,
      "укреп": 5090,
      "уцеле": 5091,
      "фер": 5092,
      "фаль": 5093,
      "халь": 5094,
      "хму": 5095,
      "чения</w>": 5096,
      "чке</w>": 5097,
      "чном</w>": 5098,
      "чными</w>": 5099,
      "чному</w>": 5100,
      "щались</w>": 5101,
      "ыми</w>": 5102,
      "эр": 5103,
      "эко": 5104,
      "эре": 5105,
      "ял</w>": 5106,
      "яся</w>": 5107,
      "поста": 5108,
      "пога": 5109,
      "повоз": 5110,
      "похоро": 5111,
      "порой</w>": 5112,
      "поним": 5113,
      "поводу</w>": 5114,
      "рал</w>": 5115,
      "раска": 5116,
      "роль</w>": 5117,
      "нал</w>": 5118,
      "нашим</w>": 5119,
      "напуга": 5120,
      "насчет</w>": 5121,
      "например</w>": 5122,
      "кожей</w>": 5123,
      "енного</w>": 5124,
      "вою": 5125,
      "каса": 5126,
      "каждая</w>": 5127,
      "ничем</w>": 5128,
      "низо": 5129,
      "ниями</w>": 5130,
      "никакой</w>": 5131,
      "нечто</w>": 5132,
      "нешь</w>": 5133,
      "неуда": 5134,
      "небу</w>": 5135,
      "негромко</w>": 5136,
      "рем</w>": 5137,
      "ресто": 5138,
      "реку</w>": 5139,
      "моста</w>": 5140,
      "заты": 5141,
      "заклина": 5142,
      "течение</w>": 5143,
      "лежали</w>": 5144,
      "вих": 5145,
      "ливо</w>": 5146,
      "табуре": 5147,
      "пропи": 5148,
      "прошли</w>": 5149,
      "дание</w>": 5150,
      "сороди": 5151,
      "соплемен": 5152,
      "вет</w>": 5153,
      "веди</w>": 5154,
      "мето": 5155,
      "выжи": 5156,
      "выпу": 5157,
      "ходи</w>": 5158,
      "тив": 5159,
      "тится</w>": 5160,
      "титу": 5161,
      "чек</w>": 5162,
      "чества</w>": 5163,
      "мага</w>": 5164,
      "думы": 5165,
      "отка": 5166,
      "оттен": 5167,
      "белого</w>": 5168,
      "живут</w>": 5169,
      "вернуть</w>": 5170,
      "вернулись</w>": 5171,
      "чах</w>": 5172,
      "обру": 5173,
      "обще": 5174,
      "чилась</w>": 5175,
      "числен": 5176,
      "сидели</w>": 5177,
      "бук": 5178,
      "вски": 5179,
      "сал</w>": 5180,
      "жест": 5181,
      "желе": 5182,
      "пара</w>": 5183,
      "пару</w>": 5184,
      "павших</w>": 5185,
      "шею</w>": 5186,
      "шестер": 5187,
      "предел</w>": 5188,
      "щился</w>": 5189,
      "гать</w>": 5190,
      "бир": 5191,
      "перере": 5192,
      "жае": 5193,
      "подгото": 5194,
      "подходя": 5195,
      "переко": 5196,
      "перегово": 5197,
      "переул": 5198,
      "главе</w>": 5199,
      "сум": 5200,
      "сур": 5201,
      "сумрак</w>": 5202,
      "фиром</w>": 5203,
      "распоря": 5204,
      "мерз": 5205,
      "правую</w>": 5206,
      "ленный</w>": 5207,
      "изо</w>": 5208,
      "извле": 5209,
      "изог": 5210,
      "альный</w>": 5211,
      "возра": 5212,
      "бая</w>": 5213,
      "требо": 5214,
      "третья</w>": 5215,
      "вшими</w>": 5216,
      "хах</w>": 5217,
      "долги</w>": 5218,
      "страха</w>": 5219,
      "оставить</w>": 5220,
      "контро": 5221,
      "пые</w>": 5222,
      "цией</w>": 5223,
      "предполо": 5224,
      "броу": 5225,
      "сможешь</w>": 5226,
      "шум": 5227,
      "зом</w>": 5228,
      "трофе": 5229,
      "говорите</w>": 5230,
      "алой</w>": 5231,
      "вяза": 5232,
      "вятся</w>": 5233,
      "надца": 5234,
      "гроз": 5235,
      "испуга": 5236,
      "заметно</w>": 5237,
      "мертва</w>": 5238,
      "мертвы</w>": 5239,
      "пятер": 5240,
      "ханнану</w>": 5241,
      "ханнаном</w>": 5242,
      "мосагу</w>": 5243,
      "мосагом</w>": 5244,
      "черная</w>": 5245,
      "поднять</w>": 5246,
      "началось</w>": 5247,
      "получается</w>": 5248,
      "полумраке</w>": 5249,
      "ударом</w>": 5250,
      "хороший</w>": 5251,
      "обратился</w>": 5252,
      "алеку</w>": 5253,
      "корточки</w>": 5254,
      "стена</w>": 5255,
      "стеной</w>": 5256,
      "инжен": 5257,
      "орга": 5258,
      "солне": 5259,
      "крест": 5260,
      "двора</w>": 5261,
      "дворец</w>": 5262,
      "волка</w>": 5263,
      "обож": 5264,
      "смеш": 5265,
      "встрече</w>": 5266,
      "неслись</w>": 5267,
      "пернатую</w>": 5268,
      "спас": 5269,
      "спал</w>": 5270,
      "спаси</w>": 5271,
      "иметь</w>": 5272,
      "плиток</w>": 5273,
      "морщи": 5274,
      "нерек</w>": 5275,
      "свободу</w>": 5276,
      "фигуру</w>": 5277,
      "красные</w>": 5278,
      "ужасом</w>": 5279,
      "нахты</w>": 5280,
      "сомне": 5281,
      "деревню</w>": 5282,
      "собственно</w>": 5283,
      "помнить</w>": 5284,
      "дальнем</w>": 5285,
      "побежал</w>": 5286,
      "отом": 5287,
      "отодви": 5288,
      "надеж": 5289,
      "улицам</w>": 5290,
      "чувства</w>": 5291,
      "королевской</w>": 5292,
      "молодо": 5293,
      "кровати</w>": 5294,
      "справедли": 5295,
      "трю": 5296,
      "принять</w>": 5297,
      "широкий</w>": 5298,
      "одежда</w>": 5299,
      "оказались</w>": 5300,
      "равно": 5301,
      "закрыл</w>": 5302,
      "ледяные</w>": 5303,
      "комнаты</w>": 5304,
      "удали": 5305,
      "убийства</w>": 5306,
      "ребенком</w>": 5307,
      "достигли</w>": 5308,
      "солнца</w>": 5309,
      "дворце</w>": 5310,
      "неподалеку</w>": 5311,
      "причины</w>": 5312,
      "порядке</w>": 5313,
      "текли</w>": 5314,
      "уверена</w>": 5315,
      "уверенность</w>": 5316,
      "отправил</w>": 5317,
      "злоб": 5318,
      "снег</w>": 5319,
      "стараясь</w>": 5320,
      "события</w>": 5321,
      "ссии</w>": 5322,
      "охранника</w>": 5323,
      "прервал</w>": 5324,
      "спустился</w>": 5325,
      "матери": 5326,
      "острова</w>": 5327,
      "честно</w>": 5328,
      "нагга</w>": 5329,
      "ющейся</w>": 5330,
      "гильдии</w>": 5331,
      "отвернулась</w>": 5332,
      "сделала</w>": 5333,
      "командир</w>": 5334,
      "поднимался</w>": 5335,
      "когти</w>": 5336,
      "ширину</w>": 5337,
      "неокропленный</w>": 5338,
      "сомневаюсь</w>": 5339,
      "осколки</w>": 5340,
      "уперся</w>": 5341,
      "тридцать</w>": 5342,
      "культу": 5343,
      "терпеть</w>": 5344,
      "капюшо": 5345,
      "виднелись</w>": 5346,
      "рукави": 5347,
      "инструмен": 5348,
      "чужой</w>": 5349,
      "гавани</w>": 5350,
      "оникс</w>": 5351,
      "оссерк</w>": 5352,
      "иллюзи": 5353,
      "мокаси": 5354,
      "хальдо</w>": 5355,
      "экономи": 5356,
      "эрес</w>": 5357,
      "блу": 5358,
      "впи": 5359,
      "вленно</w>": 5360,
      "гну": 5361,
      "гнув</w>": 5362,
      "две": 5363,
      "дни</w>": 5364,
      "дну</w>": 5365,
      "ел</w>": 5366,
      "ер</w>": 5367,
      "еду</w>": 5368,
      "зра": 5369,
      "зрения</w>": 5370,
      "нди": 5371,
      "оса": 5372,
      "опоз": 5373,
      "окрова": 5374,
      "озабо": 5375,
      "пки</w>": 5376,
      "пали": 5377,
      "снулся</w>": 5378,
      "тности</w>": 5379,
      "уе": 5380,
      "ужи": 5381,
      "увер": 5382,
      "услы": 5383,
      "укре": 5384,
      "хали</w>": 5385,
      "чались</w>": 5386,
      "шкой</w>": 5387,
      "шений</w>": 5388,
      "юный</w>": 5389,
      "стально</w>": 5390,
      "пота</w>": 5391,
      "поможет</w>": 5392,
      "потра": 5393,
      "побле": 5394,
      "потер</w>": 5395,
      "поиска": 5396,
      "помолчал</w>": 5397,
      "показалось</w>": 5398,
      "пользу": 5399,
      "подумала</w>": 5400,
      "поворачи": 5401,
      "рана</w>": 5402,
      "рали</w>": 5403,
      "нако": 5404,
      "нали": 5405,
      "наки": 5406,
      "насторо": 5407,
      "нашли</w>": 5408,
      "наступ": 5409,
      "наступа": 5410,
      "вость</w>": 5411,
      "волен</w>": 5412,
      "водит</w>": 5413,
      "новых</w>": 5414,
      "кас": 5415,
      "кает</w>": 5416,
      "капи": 5417,
      "нит</w>": 5418,
      "ните</w>": 5419,
      "нились</w>": 5420,
      "нике</w>": 5421,
      "ниях</w>": 5422,
      "несе": 5423,
      "нете</w>": 5424,
      "несколь": 5425,
      "рей</w>": 5426,
      "реке</w>": 5427,
      "зате": 5428,
      "запер": 5429,
      "задер": 5430,
      "забира": 5431,
      "замолчал</w>": 5432,
      "зашагал</w>": 5433,
      "теле</w>": 5434,
      "лопа": 5435,
      "дочь</w>": 5436,
      "домов</w>": 5437,
      "лел</w>": 5438,
      "ваний</w>": 5439,
      "дете</w>": 5440,
      "деец</w>": 5441,
      "гобе": 5442,
      "горы</w>": 5443,
      "нусь</w>": 5444,
      "ныр": 5445,
      "ныне</w>": 5446,
      "таков</w>": 5447,
      "таясь</w>": 5448,
      "такую</w>": 5449,
      "такти": 5450,
      "прох": 5451,
      "прости</w>": 5452,
      "прогу": 5453,
      "проща": 5454,
      "пройти</w>": 5455,
      "проверить</w>": 5456,
      "соз": 5457,
      "сохра": 5458,
      "соответ": 5459,
      "весе": 5460,
      "вечный</w>": 5461,
      "бов</w>": 5462,
      "боко": 5463,
      "мело": 5464,
      "вышло</w>": 5465,
      "присло": 5466,
      "признать</w>": 5467,
      "пристально</w>": 5468,
      "душе": 5469,
      "статься</w>": 5470,
      "безна": 5471,
      "бежать</w>": 5472,
      "белой</w>": 5473,
      "бежали</w>": 5474,
      "белым</w>": 5475,
      "жид": 5476,
      "жива</w>": 5477,
      "верность</w>": 5478,
      "шире</w>": 5479,
      "обу": 5480,
      "обры": 5481,
      "чики</w>": 5482,
      "лять</w>": 5483,
      "раза</w>": 5484,
      "раздра": 5485,
      "развали": 5486,
      "разбира": 5487,
      "вспомнил</w>": 5488,
      "пами</w>": 5489,
      "пасть</w>": 5490,
      "гают</w>": 5491,
      "сками</w>": 5492,
      "скажите</w>": 5493,
      "пеп": 5494,
      "ряды</w>": 5495,
      "нят</w>": 5496,
      "валу</w>": 5497,
      "бище</w>": 5498,
      "первых</w>": 5499,
      "первыми</w>": 5500,
      "миг</w>": 5501,
      "пут": 5502,
      "перехвати": 5503,
      "суе": 5504,
      "рассчиты": 5505,
      "взмет": 5506,
      "лена</w>": 5507,
      "тывая</w>": 5508,
      "бат</w>": 5509,
      "тельством</w>": 5510,
      "голосов</w>": 5511,
      "хажи": 5512,
      "гим</w>": 5513,
      "одному</w>": 5514,
      "стин": 5515,
      "страи": 5516,
      "страж</w>": 5517,
      "женной</w>": 5518,
      "муску": 5519,
      "след": 5520,
      "которыми</w>": 5521,
      "смор": 5522,
      "подоби": 5523,
      "подобра": 5524,
      "подошли</w>": 5525,
      "зор": 5526,
      "взгляды</w>": 5527,
      "говорим</w>": 5528,
      "встря": 5529,
      "дывая</w>": 5530,
      "цари": 5531,
      "ходите</w>": 5532,
      "самому</w>": 5533,
      "гроб": 5534,
      "бедра</w>": 5535,
      "безы": 5536,
      "воином</w>": 5537,
      "пять": 5538,
      "повернулись</w>": 5539,
      "череп</w>": 5540,
      "черный</w>": 5541,
      "черных</w>": 5542,
      "план</w>": 5543,
      "пламен": 5544,
      "городов</w>": 5545,
      "стенами</w>": 5546,
      "положение</w>": 5547,
      "дорож": 5548,
      "сделано</w>": 5549,
      "ставив</w>": 5550,
      "ставили</w>": 5551,
      "казались</w>": 5552,
      "потоком</w>": 5553,
      "колдуну</w>": 5554,
      "видим</w>": 5555,
      "ублю": 5556,
      "последним</w>": 5557,
      "остановил</w>": 5558,
      "работа</w>": 5559,
      "работать</w>": 5560,
      "призрака</w>": 5561,
      "спасти</w>": 5562,
      "плитку</w>": 5563,
      "существенно</w>": 5564,
      "береж": 5565,
      "чувств</w>": 5566,
      "жут</w>": 5567,
      "желает</w>": 5568,
      "щенный</w>": 5569,
      "восста": 5570,
      "красне": 5571,
      "форму</w>": 5572,
      "стям</w>": 5573,
      "бледне": 5574,
      "дьте</w>": 5575,
      "блес": 5576,
      "дальней</w>": 5577,
      "золота</w>": 5578,
      "волос</w>": 5579,
      "охраня": 5580,
      "коленях</w>": 5581,
      "холод</w>": 5582,
      "благода": 5583,
      "корабля</w>": 5584,
      "нахмурилась</w>": 5585,
      "монета</w>": 5586,
      "влены</w>": 5587,
      "сегодня": 5588,
      "уничтожить</w>": 5589,
      "узкий</w>": 5590,
      "собирался</w>": 5591,
      "защиту</w>": 5592,
      "оглядел</w>": 5593,
      "оказалась</w>": 5594,
      "старшего</w>": 5595,
      "терадаса</w>": 5596,
      "глубокий</w>": 5597,
      "поклявшегося</w>": 5598,
      "ощущ": 5599,
      "покой": 5600,
      "востор": 5601,
      "востоке</w>": 5602,
      "спуска": 5603,
      "гнева</w>": 5604,
      "севере</w>": 5605,
      "гвардеец</w>": 5606,
      "здания</w>": 5607,
      "палаты</w>": 5608,
      "ребенок</w>": 5609,
      "мужчины</w>": 5610,
      "потреб": 5611,
      "тонкие</w>": 5612,
      "ярост": 5613,
      "дисканара</w>": 5614,
      "огромные</w>": 5615,
      "ложь</w>": 5616,
      "изменился</w>": 5617,
      "громадный</w>": 5618,
      "текто": 5619,
      "коридора</w>": 5620,
      "коридоре</w>": 5621,
      "коридору</w>": 5622,
      "умирает</w>": 5623,
      "предложение</w>": 5624,
      "завершения</w>": 5625,
      "застыл</w>": 5626,
      "лестницы</w>": 5627,
      "держаться</w>": 5628,
      "исчезли</w>": 5629,
      "двадцати</w>": 5630,
      "лошади</w>": 5631,
      "глины</w>": 5632,
      "свидетелем</w>": 5633,
      "целиком</w>": 5634,
      "фургон</w>": 5635,
      "смотрю</w>": 5636,
      "согласился</w>": 5637,
      "острые</w>": 5638,
      "очевид": 5639,
      "происходит</w>": 5640,
      "королевства</w>": 5641,
      "молит": 5642,
      "могилы</w>": 5643,
      "клыки</w>": 5644,
      "около</w>": 5645,
      "потянулся</w>": 5646,
      "абсур": 5647,
      "сомнений</w>": 5648,
      "арапаи</w>": 5649,
      "худож": 5650,
      "отметил</w>": 5651,
      "цивилизации</w>": 5652,
      "мальчик</w>": 5653,
      "отсутствие</w>": 5654,
      "четырех</w>": 5655,
      "основном</w>": 5656,
      "синецветья</w>": 5657,
      "серебря": 5658,
      "отврати": 5659,
      "полукровка</w>": 5660,
      "поправил</w>": 5661,
      "вопль</w>": 5662,
      "послышался</w>": 5663,
      "кошма": 5664,
      "бенедов</w>": 5665,
      "опроки": 5666,
      "всадники</w>": 5667,
      "шелта": 5668,
      "оконча": 5669,
      "финансо": 5670,
      "трибан</w>": 5671,
      "фальши": 5672,
      "сомневался</w>": 5673,
      "безнаде": 5674,
      "сегодняш": 5675,
      "аги": 5676,
      "гло</w>": 5677,
      "галось</w>": 5678,
      "дных</w>": 5679,
      "далась</w>": 5680,
      "идут</w>": 5681,
      "ибо</w>": 5682,
      "истер": 5683,
      "кле": 5684,
      "кени": 5685,
      "кнули</w>": 5686,
      "лении</w>": 5687,
      "нность</w>": 5688,
      "оне": 5689,
      "оше": 5690,
      "оглу": 5691,
      "рки</w>": 5692,
      "сби": 5693,
      "спер": 5694,
      "спле": 5695,
      "сгор": 5696,
      "сдержи": 5697,
      "тро</w>": 5698,
      "ум</w>": 5699,
      "ую</w>": 5700,
      "уса": 5701,
      "упре": 5702,
      "устрем": 5703,
      "хли": 5704,
      "чо": 5705,
      "чком</w>": 5706,
      "чрез": 5707,
      "щении</w>": 5708,
      "ъя": 5709,
      "энер": 5710,
      "юж": 5711,
      "юду</w>": 5712,
      "юге</w>": 5713,
      "ялись</w>": 5714,
      "ящер": 5715,
      "стка</w>": 5716,
      "стье</w>": 5717,
      "сталь</w>": 5718,
      "повс": 5719,
      "покон": 5720,
      "повре": 5721,
      "почер": 5722,
      "поклони": 5723,
      "потянул</w>": 5724,
      "побери</w>": 5725,
      "побереж": 5726,
      "покрасне": 5727,
      "рос</w>": 5728,
      "нар": 5729,
      "настро": 5730,
      "намного</w>": 5731,
      "ери": 5732,
      "коли": 5733,
      "ень</w>": 5734,
      "воском</w>": 5735,
      "нос": 5736,
      "каща": 5737,
      "нилось</w>": 5738,
      "нившись</w>": 5739,
      "непоня": 5740,
      "несом": 5741,
      "некотором</w>": 5742,
      "непости": 5743,
      "неудивительно</w>": 5744,
      "риско": 5745,
      "мора": 5746,
      "моем</w>": 5747,
      "зара": 5748,
      "зато": 5749,
      "зати": 5750,
      "заку": 5751,
      "задра": 5752,
      "зарос": 5753,
      "засох": 5754,
      "теголо": 5755,
      "телю</w>": 5756,
      "лок": 5757,
      "лор</w>": 5758,
      "локо": 5759,
      "лоды": 5760,
      "лец</w>": 5761,
      "левое</w>": 5762,
      "вании</w>": 5763,
      "вашем</w>": 5764,
      "дезер": 5765,
      "года</w>": 5766,
      "виф": 5767,
      "виси": 5768,
      "вились</w>": 5769,
      "нынеш": 5770,
      "лив</w>": 5771,
      "льных</w>": 5772,
      "льду</w>": 5773,
      "прода": 5774,
      "провер": 5775,
      "простран": 5776,
      "проговорил</w>": 5777,
      "проигра": 5778,
      "дасом</w>": 5779,
      "дик": 5780,
      "дис": 5781,
      "дим</w>": 5782,
      "дине</w>": 5783,
      "сож": 5784,
      "солю": 5785,
      "сокрови": 5786,
      "веж": 5787,
      "вей</w>": 5788,
      "велел</w>": 5789,
      "мебе": 5790,
      "выде": 5791,
      "выры": 5792,
      "выпа": 5793,
      "выска": 5794,
      "выступа": 5795,
      "вывод</w>": 5796,
      "тись</w>": 5797,
      "приро": 5798,
      "приказ": 5799,
      "принесли</w>": 5800,
      "секу": 5801,
      "седу</w>": 5802,
      "семя</w>": 5803,
      "мани": 5804,
      "мати": 5805,
      "бывает</w>": 5806,
      "отпу": 5807,
      "откли": 5808,
      "отступа": 5809,
      "бегу": 5810,
      "жились</w>": 5811,
      "живой</w>": 5812,
      "живу": 5813,
      "вера</w>": 5814,
      "верхо": 5815,
      "вернул</w>": 5816,
      "вернее</w>": 5817,
      "чам</w>": 5818,
      "обо</w>": 5819,
      "обстоя": 5820,
      "облег": 5821,
      "рые</w>": 5822,
      "чие</w>": 5823,
      "чии</w>": 5824,
      "чих</w>": 5825,
      "чились</w>": 5826,
      "систе": 5827,
      "сидела</w>": 5828,
      "булы": 5829,
      "будьте</w>": 5830,
      "ляции</w>": 5831,
      "раздо": 5832,
      "разви": 5833,
      "разры": 5834,
      "разница</w>": 5835,
      "размыш": 5836,
      "сара": 5837,
      "сарко": 5838,
      "лух</w>": 5839,
      "жете</w>": 5840,
      "шеб": 5841,
      "шесть": 5842,
      "прегра": 5843,
      "прекло": 5844,
      "щиеся</w>": 5845,
      "пес": 5846,
      "ням</w>": 5847,
      "няла</w>": 5848,
      "жает</w>": 5849,
      "миры</w>": 5850,
      "шар": 5851,
      "шал</w>": 5852,
      "поддержи": 5853,
      "подтянул</w>": 5854,
      "пустой</w>": 5855,
      "перебил</w>": 5856,
      "пит</w>": 5857,
      "писы": 5858,
      "скон": 5859,
      "сумер": 5860,
      "расхо": 5861,
      "рассвет</w>": 5862,
      "взре": 5863,
      "ленным</w>": 5864,
      "изо": 5865,
      "издал</w>": 5866,
      "бара": 5867,
      "тремя</w>": 5868,
      "братом</w>": 5869,
      "ждении</w>": 5870,
      "кром": 5871,
      "хая</w>": 5872,
      "хаду</w>": 5873,
      "гибе": 5874,
      "одер": 5875,
      "долга</w>": 5876,
      "женная</w>": 5877,
      "женным</w>": 5878,
      "слуге</w>": 5879,
      "скле": 5880,
      "останавли": 5881,
      "плеча</w>": 5882,
      "плече</w>": 5883,
      "стую</w>": 5884,
      "полное</w>": 5885,
      "тянули</w>": 5886,
      "представи": 5887,
      "предводи": 5888,
      "сможет</w>": 5889,
      "подойти</w>": 5890,
      "осты": 5891,
      "думаете</w>": 5892,
      "взгляда</w>": 5893,
      "тропе</w>": 5894,
      "краси": 5895,
      "дые</w>": 5896,
      "алан": 5897,
      "исце": 5898,
      "безмер": 5899,
      "пяти</w>": 5900,
      "храм</w>": 5901,
      "поверх</w>": 5902,
      "пряче": 5903,
      "враг</w>": 5904,
      "врата</w>": 5905,
      "странным</w>": 5906,
      "сынов": 5907,
      "сынове": 5908,
      "планы</w>": 5909,
      "близо": 5910,
      "убитых</w>": 5911,
      "правила</w>": 5912,
      "получ": 5913,
      "движения</w>": 5914,
      "движется</w>": 5915,
      "ствий</w>": 5916,
      "тран": 5917,
      "потол": 5918,
      "жизнью</w>": 5919,
      "волшеб": 5920,
      "действу": 5921,
      "помог</w>": 5922,
      "понимает</w>": 5923,
      "понимаете</w>": 5924,
      "считал</w>": 5925,
      "встреча</w>": 5926,
      "рабом</w>": 5927,
      "работает</w>": 5928,
      "объе": 5929,
      "несло</w>": 5930,
      "единого</w>": 5931,
      "берет</w>": 5932,
      "десятки</w>": 5933,
      "ступить</w>": 5934,
      "жутся</w>": 5935,
      "щены</w>": 5936,
      "ужасе</w>": 5937,
      "пруть": 5938,
      "хранитель</w>": 5939,
      "тысячу</w>": 5940,
      "великан</w>": 5941,
      "любого</w>": 5942,
      "пойдут</w>": 5943,
      "вздохом</w>": 5944,
      "охрана</w>": 5945,
      "анхаду</w>": 5946,
      "народу</w>": 5947,
      "молод</w>": 5948,
      "вшем</w>": 5949,
      "вшейся</w>": 5950,
      "вшееся</w>": 5951,
      "видение</w>": 5952,
      "нахмурившись</w>": 5953,
      "низу</w>": 5954,
      "евнуха</w>": 5955,
      "носит</w>": 5956,
      "каждую</w>": 5957,
      "семья</w>": 5958,
      "опустив</w>": 5959,
      "считает</w>": 5960,
      "точнее</w>": 5961,
      "вернусь</w>": 5962,
      "полагать</w>": 5963,
      "коричне": 5964,
      "свире": 5965,
      "опасность</w>": 5966,
      "угол</w>": 5967,
      "самые</w>": 5968,
      "огнем</w>": 5969,
      "покои": 5970,
      "мешок</w>": 5971,
      "ндамен": 5972,
      "спут": 5973,
      "ледяной</w>": 5974,
      "смертных</w>": 5975,
      "выбрался</w>": 5976,
      "выбраться</w>": 5977,
      "слушаюсь</w>": 5978,
      "комнате</w>": 5979,
      "история</w>": 5980,
      "удал": 5981,
      "братьями</w>": 5982,
      "братьям</w>": 5983,
      "дракон</w>": 5984,
      "палату</w>": 5985,
      "совето": 5986,
      "турудала</w>": 5987,
      "мужчин</w>": 5988,
      "остальным</w>": 5989,
      "фундамен": 5990,
      "шатра</w>": 5991,
      "игры</w>": 5992,
      "ошиба": 5993,
      "уверены</w>": 5994,
      "уставились</w>": 5995,
      "жертва</w>": 5996,
      "консорта</w>": 5997,
      "событий</w>": 5998,
      "состояние</w>": 5999,
      "приходится</w>": 6000,
      "избежать</w>": 6001,
      "яггут</w>": 6002,
      "благодаря</w>": 6003,
      "залив</w>": 6004,
      "обещал</w>": 6005,
      "делегации</w>": 6006,
      "делегация</w>": 6007,
      "везде</w>": 6008,
      "связи</w>": 6009,
      "наблюдая</w>": 6010,
      "вытащил</w>": 6011,
      "слабость</w>": 6012,
      "бесчисленных</w>": 6013,
      "сопровожда": 6014,
      "люблю</w>": 6015,
      "каждое</w>": 6016,
      "каждого</w>": 6017,
      "дольше</w>": 6018,
      "дольмен</w>": 6019,
      "глазки</w>": 6020,
      "распахну": 6021,
      "сопротивляться</w>": 6022,
      "абсолю": 6023,
      "намерения</w>": 6024,
      "симво": 6025,
      "удовольствие</w>": 6026,
      "гвардейцы</w>": 6027,
      "арапаев</w>": 6028,
      "откинулся</w>": 6029,
      "выходу</w>": 6030,
      "сухожили": 6031,
      "хаос</w>": 6032,
      "произошло</w>": 6033,
      "результат</w>": 6034,
      "ассейл</w>": 6035,
      "ослепи": 6036,
      "капитан</w>": 6037,
      "следователь</w>": 6038,
      "грима": 6039,
      "задумчиво</w>": 6040,
      "осведо": 6041,
      "сцена</w>": 6042,
      "нижней</w>": 6043,
      "выдохнул</w>": 6044,
      "сообщил</w>": 6045,
      "воспоминания</w>": 6046,
      "спрята": 6047,
      "каттер</w>": 6048,
      "примерно</w>": 6049,
      "седьмого</w>": 6050,
      "источник</w>": 6051,
      "сражаться</w>": 6052,
      "прошипел</w>": 6053,
      "кинжал</w>": 6054,
      "сапог</w>": 6055,
      "цепи</w>": 6056,
      "посмотрим</w>": 6057,
      "горизон": 6058,
      "вонзи": 6059,
      "друзья</w>": 6060,
      "силуэт</w>": 6061,
      "аппети": 6062,
      "мудрость</w>": 6063,
      "послушай</w>": 6064,
      "мертвого</w>": 6065,
      "возмути": 6066,
      "услышав</w>": 6067,
      "окровавлен": 6068,
      "капиту": 6069,
      "окончательно</w>": 6070,
      "энерги": 6071,
      "несомненно</w>": 6072,
      "непостижи": 6073,
      "теголом</w>": 6074,
      "дезерти": 6075,
      "секун": 6076,
      "булыж": 6077,
      "саркофа": 6078,
      "сыновей</w>": 6079,
      "»?</w>": 6080,
      "»,</w>": 6081,
      "ауди": 6082,
      "бло": 6083,
      "вза": 6084,
      "вного</w>": 6085,
      "гмен": 6086,
      "етесь</w>": 6087,
      "жений</w>": 6088,
      "зм</w>": 6089,
      "звон</w>": 6090,
      "ито": 6091,
      "ила</w>": 6092,
      "иму": 6093,
      "идите</w>": 6094,
      "кло</w>": 6095,
      "лени": 6096,
      "нь": 6097,
      "оз": 6098,
      "очи": 6099,
      "олен": 6100,
      "охва": 6101,
      "охвати": 6102,
      "одоб": 6103,
      "описа": 6104,
      "прас": 6105,
      "пало</w>": 6106,
      "счу": 6107,
      "спло": 6108,
      "срав": 6109,
      "съе": 6110,
      "счастью</w>": 6111,
      "снизу</w>": 6112,
      "тного</w>": 6113,
      "ткой</w>": 6114,
      "узна": 6115,
      "уку": 6116,
      "убра": 6117,
      "узо": 6118,
      "упря": 6119,
      "ушла</w>": 6120,
      "участ": 6121,
      "увидели</w>": 6122,
      "упала</w>": 6123,
      "утром</w>": 6124,
      "утро</w>": 6125,
      "фра": 6126,
      "фли": 6127,
      "хала</w>": 6128,
      "чками</w>": 6129,
      "шками</w>": 6130,
      "ьями</w>": 6131,
      "яз": 6132,
      "поте": 6133,
      "пови": 6134,
      "поли": 6135,
      "покол": 6136,
      "поставил</w>": 6137,
      "пошевели": 6138,
      "полирован": 6139,
      "потемне": 6140,
      "побледне": 6141,
      "расто": 6142,
      "раты</w>": 6143,
      "растер": 6144,
      "рого</w>": 6145,
      "розо": 6146,
      "ростом</w>": 6147,
      "нака": 6148,
      "наря": 6149,
      "наби": 6150,
      "нашу</w>": 6151,
      "напосле": 6152,
      "направо</w>": 6153,
      "наклонился</w>": 6154,
      "наоборот</w>": 6155,
      "напрас": 6156,
      "колан": 6157,
      "енных</w>": 6158,
      "енное</w>": 6159,
      "вости</w>": 6160,
      "водить</w>": 6161,
      "восемь</w>": 6162,
      "товари": 6163,
      "нога</w>": 6164,
      "ножа</w>": 6165,
      "новую</w>": 6166,
      "ностями</w>": 6167,
      "каясь</w>": 6168,
      "нись</w>": 6169,
      "ницей</w>": 6170,
      "недоста": 6171,
      "недавно</w>": 6172,
      "небре": 6173,
      "нелегко</w>": 6174,
      "невероя": 6175,
      "нескон": 6176,
      "рем": 6177,
      "рий</w>": 6178,
      "засти": 6179,
      "закля": 6180,
      "телу</w>": 6181,
      "телям</w>": 6182,
      "дога": 6183,
      "довать</w>": 6184,
      "достал</w>": 6185,
      "дев": 6186,
      "дер</w>": 6187,
      "гости</w>": 6188,
      "годы</w>": 6189,
      "лично</w>": 6190,
      "лье</w>": 6191,
      "льси": 6192,
      "прое": 6193,
      "прохо": 6194,
      "проси": 6195,
      "прось": 6196,
      "дасу</w>": 6197,
      "сопер": 6198,
      "содержи": 6199,
      "сотря": 6200,
      "составля": 6201,
      "соору": 6202,
      "вен</w>": 6203,
      "вес</w>": 6204,
      "веки</w>": 6205,
      "вести": 6206,
      "меха</w>": 6207,
      "выси": 6208,
      "выход</w>": 6209,
      "вытяну": 6210,
      "вытара": 6211,
      "тилось</w>": 6212,
      "тиями</w>": 6213,
      "приго": 6214,
      "прися": 6215,
      "призе": 6216,
      "присла": 6217,
      "сеть</w>": 6218,
      "седе</w>": 6219,
      "седан": 6220,
      "семей": 6221,
      "север</w>": 6222,
      "отды": 6223,
      "столу</w>": 6224,
      "столом</w>": 6225,
      "став</w>": 6226,
      "жилась</w>": 6227,
      "чаться</w>": 6228,
      "рых</w>": 6229,
      "рыба</w>": 6230,
      "чим</w>": 6231,
      "разруши": 6232,
      "вспомни": 6233,
      "сани</w>": 6234,
      "луны</w>": 6235,
      "жество</w>": 6236,
      "пар</w>": 6237,
      "шепот</w>": 6238,
      "предан": 6239,
      "валом</w>": 6240,
      "бири</w>": 6241,
      "кучу</w>": 6242,
      "жав</w>": 6243,
      "жаров": 6244,
      "шай": 6245,
      "подно": 6246,
      "подни": 6247,
      "перед": 6248,
      "переда": 6249,
      "пиров": 6250,
      "суро": 6251,
      "сумас": 6252,
      "рассказал</w>": 6253,
      "рассмотреть</w>": 6254,
      "расхажи": 6255,
      "мерудо": 6256,
      "прах</w>": 6257,
      "взды": 6258,
      "тывает</w>": 6259,
      "возника": 6260,
      "бавшись</w>": 6261,
      "удивлен</w>": 6262,
      "крыс</w>": 6263,
      "тучи</w>": 6264,
      "посме": 6265,
      "гиба": 6266,
      "гивая</w>": 6267,
      "стия</w>": 6268,
      "стихи": 6269,
      "жену</w>": 6270,
      "женно</w>": 6271,
      "служить</w>": 6272,
      "чую</w>": 6273,
      "стоят</w>": 6274,
      "больших</w>": 6275,
      "оставь</w>": 6276,
      "слей</w>": 6277,
      "слепой</w>": 6278,
      "плевать</w>": 6279,
      "полз</w>": 6280,
      "летере</w>": 6281,
      "тянулись</w>": 6282,
      "пыт</w>": 6283,
      "ченной</w>": 6284,
      "предме": 6285,
      "предки</w>": 6286,
      "предстоит</w>": 6287,
      "предплеч": 6288,
      "буггу</w>": 6289,
      "смогут</w>": 6290,
      "делаешь</w>": 6291,
      "твоем</w>": 6292,
      "ственное</w>": 6293,
      "взглянуть</w>": 6294,
      "тропи": 6295,
      "вязы": 6296,
      "цар": 6297,
      "сности</w>": 6298,
      "замедли": 6299,
      "бездо": 6300,
      "храбро": 6301,
      "чересчу": 6302,
      "летерийский</w>": 6303,
      "зывает</w>": 6304,
      "подняться</w>": 6305,
      "женщине</w>": 6306,
      "женщинами</w>": 6307,
      "править</w>": 6308,
      "двинулась</w>": 6309,
      "движением</w>": 6310,
      "двигались</w>": 6311,
      "свету</w>": 6312,
      "криками</w>": 6313,
      "кристал": 6314,
      "ствием</w>": 6315,
      "обратил</w>": 6316,
      "спине</w>": 6317,
      "травы</w>": 6318,
      "грави": 6319,
      "инстин": 6320,
      "появление</w>": 6321,
      "волков</w>": 6322,
      "действовать</w>": 6323,
      "улыба": 6324,
      "летели</w>": 6325,
      "щуюся</w>": 6326,
      "торча": 6327,
      "торгово": 6328,
      "значительно</w>": 6329,
      "обителей</w>": 6330,
      "спросить</w>": 6331,
      "толкнул</w>": 6332,
      "толпы</w>": 6333,
      "толпу</w>": 6334,
      "высоко</w>": 6335,
      "хорошего</w>": 6336,
      "встрево": 6337,
      "остановиться</w>": 6338,
      "работы</w>": 6339,
      "объеди": 6340,
      "другому</w>": 6341,
      "дрожа": 6342,
      "плитка</w>": 6343,
      "сказали</w>": 6344,
      "моргнул</w>": 6345,
      "нереками</w>": 6346,
      "ворон</w>": 6347,
      "легкие</w>": 6348,
      "влением</w>": 6349,
      "квар": 6350,
      "квана</w>": 6351,
      "образи": 6352,
      "щенные</w>": 6353,
      "ющем</w>": 6354,
      "сердце": 6355,
      "нахтов</w>": 6356,
      "хранили": 6357,
      "ветру</w>": 6358,
      "тысяча</w>": 6359,
      "собственных</w>": 6360,
      "любовни": 6361,
      "копьем</w>": 6362,
      "жаль</w>": 6363,
      "ванный</w>": 6364,
      "ванных</w>": 6365,
      "ванное</w>": 6366,
      "помни</w>": 6367,
      "мороха</w>": 6368,
      "покрывали</w>": 6369,
      "золотой</w>": 6370,
      "золотые</w>": 6371,
      "пойдет</w>": 6372,
      "независи": 6373,
      "решила</w>": 6374,
      "следовали</w>": 6375,
      "главной</w>": 6376,
      "бросили</w>": 6377,
      "неуверен": 6378,
      "ждается</w>": 6379,
      "народы</w>": 6380,
      "армию</w>": 6381,
      "скрыть</w>": 6382,
      "берись</w>": 6383,
      "кровавого</w>": 6384,
      "пятнами</w>": 6385,
      "считаешь</w>": 6386,
      "уничтожили</w>": 6387,
      "узкой</w>": 6388,
      "собираюсь</w>": 6389,
      "думали</w>": 6390,
      "битве</w>": 6391,
      "предательство</w>": 6392,
      "глубокие</w>": 6393,
      "огня</w>": 6394,
      "огрыз": 6395,
      "холмов</w>": 6396,
      "найден": 6397,
      "найдется</w>": 6398,
      "плым</w>": 6399,
      "убийство</w>": 6400,
      "оруди": 6401,
      "получилось</w>": 6402,
      "единственное</w>": 6403,
      "звери</w>": 6404,
      "опусто": 6405,
      "очередной</w>": 6406,
      "тартеналы</w>": 6407,
      "игры": 6408,
      "доспехов</w>": 6409,
      "отправился</w>": 6410,
      "снегу</w>": 6411,
      "умирать</w>": 6412,
      "утопал": 6413,
      "назвал</w>": 6414,
      "араха": 6415,
      "четверо</w>": 6416,
      "глубин</w>": 6417,
      "чайно</w>": 6418,
      "чайки</w>": 6419,
      "зависит</w>": 6420,
      "госпожа</w>": 6421,
      "чувствую</w>": 6422,
      "чувствуешь</w>": 6423,
      "влия": 6424,
      "залива</w>": 6425,
      "улок</w>": 6426,
      "могильник</w>": 6427,
      "канцлером</w>": 6428,
      "делегацию</w>": 6429,
      "прекрати</w>": 6430,
      "железо</w>": 6431,
      "эмурланна</w>": 6432,
      "наречии</w>": 6433,
      "невидимые</w>": 6434,
      "улшу": 6435,
      "заслужил</w>": 6436,
      "заслужили</w>": 6437,
      "скрести": 6438,
      "ловко</w>": 6439,
      "страдание</w>": 6440,
      "будущее</w>": 6441,
      "поднимались</w>": 6442,
      "секретар": 6443,
      "отношения</w>": 6444,
      "печально</w>": 6445,
      "пустого</w>": 6446,
      "трещины</w>": 6447,
      "ползли</w>": 6448,
      "продолжала</w>": 6449,
      "посыла": 6450,
      "безразличи": 6451,
      "картина</w>": 6452,
      "гвардейцев</w>": 6453,
      "ритуал</w>": 6454,
      "девушка</w>": 6455,
      "дурак</w>": 6456,
      "чародеев</w>": 6457,
      "погибли</w>": 6458,
      "тридцати</w>": 6459,
      "тарелку</w>": 6460,
      "компании</w>": 6461,
      "хлынула</w>": 6462,
      "смотрит</w>": 6463,
      "змеи": 6464,
      "оскали": 6465,
      "приказ</w>": 6466,
      "гнездо</w>": 6467,
      "столкнов": 6468,
      "прищурился</w>": 6469,
      "бризада</w>": 6470,
      "воскликнул</w>": 6471,
      "карабк": 6472,
      "отступила</w>": 6473,
      "оружейник</w>": 6474,
      "костра</w>": 6475,
      "лихора": 6476,
      "самим</w>": 6477,
      "глубже</w>": 6478,
      "грызу": 6479,
      "успокои": 6480,
      "задержался</w>": 6481,
      "примитив": 6482,
      "колдовство</w>": 6483,
      "случайно</w>": 6484,
      "поколебавшись</w>": 6485,
      "налево</w>": 6486,
      "умрет</w>": 6487,
      "хрипло</w>": 6488,
      "беженцев</w>": 6489,
      "харак": 6490,
      "катастроф": 6491,
      "означало</w>": 6492,
      "эрбат</w>": 6493,
      "шумно</w>": 6494,
      "инженер</w>": 6495,
      "безымя": 6496,
      "пятьдесят</w>": 6497,
      "кенилл</w>": 6498,
      "повсюду</w>": 6499,
      "вифала</w>": 6500,
      "сыновья</w>": 6501,
      "аудиен": 6502,
      "имуще": 6503,
      "напоследок</w>": 6504,
      "нескончае": 6505,
      "приземи": 6506,
      "мерудов</w>": 6507,
      "чересчур</w>": 6508,
      "аро": 6509,
      "ано": 6510,
      "бя": 6511,
      "бку</w>": 6512,
      "вме": 6513,
      "вке</w>": 6514,
      "гка</w>": 6515,
      "глы": 6516,
      "галась</w>": 6517,
      "греб": 6518,
      "днем</w>": 6519,
      "жного</w>": 6520,
      "жало</w>": 6521,
      "зр": 6522,
      "зво": 6523,
      "иду</w>": 6524,
      "исте": 6525,
      "изнач": 6526,
      "йтись</w>": 6527,
      "кты</w>": 6528,
      "кнулся</w>": 6529,
      "кнув</w>": 6530,
      "кции</w>": 6531,
      "кнуло</w>": 6532,
      "лли": 6533,
      "лло</w>": 6534,
      "лба</w>": 6535,
      "нном</w>": 6536,
      "оце": 6537,
      "обор": 6538,
      "опор</w>": 6539,
      "опира": 6540,
      "оскорб": 6541,
      "окрест": 6542,
      "рь": 6543,
      "сжал</w>": 6544,
      "сдви": 6545,
      "смя": 6546,
      "схватил</w>": 6547,
      "снял</w>": 6548,
      "сбоку</w>": 6549,
      "тал": 6550,
      "тни": 6551,
      "уй": 6552,
      "уст": 6553,
      "упере": 6554,
      "учен": 6555,
      "уши</w>": 6556,
      "увле": 6557,
      "увели": 6558,
      "учить</w>": 6559,
      "устрои": 6560,
      "утрен": 6561,
      "услови": 6562,
      "хто": 6563,
      "чную</w>": 6564,
      "шлю": 6565,
      "шении</w>": 6566,
      "ыш</w>": 6567,
      "эмо": 6568,
      "яли</w>": 6569,
      "яла</w>": 6570,
      "ямы</w>": 6571,
      "стся</w>": 6572,
      "стон</w>": 6573,
      "ствами</w>": 6574,
      "ствах</w>": 6575,
      "поле": 6576,
      "пома": 6577,
      "попере": 6578,
      "покро": 6579,
      "подал</w>": 6580,
      "помя": 6581,
      "повали": 6582,
      "пойти</w>": 6583,
      "полез": 6584,
      "попал</w>": 6585,
      "пошат": 6586,
      "пользо": 6587,
      "пожале": 6588,
      "почувствовала</w>": 6589,
      "рать</w>": 6590,
      "раку": 6591,
      "ровали</w>": 6592,
      "роста</w>": 6593,
      "нашла</w>": 6594,
      "находя": 6595,
      "еры</w>": 6596,
      "копи": 6597,
      "ковать</w>": 6598,
      "косно": 6599,
      "воля</w>": 6600,
      "вовремя</w>": 6601,
      "але</w>": 6602,
      "носил</w>": 6603,
      "носом</w>": 6604,
      "ногам</w>": 6605,
      "ностям</w>": 6606,
      "кач": 6607,
      "каше": 6608,
      "кавал": 6609,
      "камне</w>": 6610,
      "никуда</w>": 6611,
      "ниям</w>": 6612,
      "немо": 6613,
      "неле": 6614,
      "неисто": 6615,
      "неба</w>": 6616,
      "небе</w>": 6617,
      "рут</w>": 6618,
      "рухнула</w>": 6619,
      "ребе": 6620,
      "рим</w>": 6621,
      "зам": 6622,
      "зано": 6623,
      "запя": 6624,
      "завла": 6625,
      "замор": 6626,
      "задержи": 6627,
      "заставить</w>": 6628,
      "запеча": 6629,
      "тет</w>": 6630,
      "теку": 6631,
      "лаби": 6632,
      "лома": 6633,
      "ложить</w>": 6634,
      "доса": 6635,
      "докла": 6636,
      "вайся</w>": 6637,
      "ваете</w>": 6638,
      "вающим</w>": 6639,
      "дед</w>": 6640,
      "дец</w>": 6641,
      "дель</w>": 6642,
      "вили</w>": 6643,
      "тания</w>": 6644,
      "таин": 6645,
      "просто": 6646,
      "промы": 6647,
      "процен": 6648,
      "пропал</w>": 6649,
      "профе": 6650,
      "пропали</w>": 6651,
      "дают</w>": 6652,
      "давала</w>": 6653,
      "давайте</w>": 6654,
      "дикая</w>": 6655,
      "сотруд": 6656,
      "сотен</w>": 6657,
      "боло": 6658,
      "бого</w>": 6659,
      "вымо": 6660,
      "выско": 6661,
      "выпла": 6662,
      "высвобо": 6663,
      "выжил</w>": 6664,
      "выреза": 6665,
      "вызов</w>": 6666,
      "вылял</w>": 6667,
      "ходу</w>": 6668,
      "тишь</w>": 6669,
      "тинен": 6670,
      "прики": 6671,
      "пригля": 6672,
      "приглу": 6673,
      "прийти</w>": 6674,
      "привел</w>": 6675,
      "мама": 6676,
      "маку": 6677,
      "духа</w>": 6678,
      "отста": 6679,
      "откров": 6680,
      "станем</w>": 6681,
      "жило</w>": 6682,
      "живая</w>": 6683,
      "живые</w>": 6684,
      "чары</w>": 6685,
      "часы</w>": 6686,
      "чатые</w>": 6687,
      "обле": 6688,
      "обхвати": 6689,
      "кипя": 6690,
      "чивает</w>": 6691,
      "силе</w>": 6692,
      "сигна": 6693,
      "ляя</w>": 6694,
      "ляли</w>": 6695,
      "разло": 6696,
      "разма": 6697,
      "разных</w>": 6698,
      "развед": 6699,
      "вслух</w>": 6700,
      "мень": 6701,
      "жест</w>": 6702,
      "пая</w>": 6703,
      "пауз": 6704,
      "парень</w>": 6705,
      "шеи</w>": 6706,
      "шепотом</w>": 6707,
      "знаком": 6708,
      "скажешь</w>": 6709,
      "пепел</w>": 6710,
      "валы</w>": 6711,
      "кух": 6712,
      "кувыр": 6713,
      "жар": 6714,
      "жажда</w>": 6715,
      "мино": 6716,
      "мину": 6717,
      "шама": 6718,
      "шаге</w>": 6719,
      "шаяся</w>": 6720,
      "пух": 6721,
      "публи": 6722,
      "путем</w>": 6723,
      "перегля": 6724,
      "перепол": 6725,
      "перевяз": 6726,
      "сухо</w>": 6727,
      "расче": 6728,
      "расплы": 6729,
      "расшири": 6730,
      "труллом</w>": 6731,
      "мери": 6732,
      "взро": 6733,
      "взвиз": 6734,
      "ленные</w>": 6735,
      "ленную</w>": 6736,
      "изя": 6737,
      "возбу": 6738,
      "удивление</w>": 6739,
      "туман": 6740,
      "крохот": 6741,
      "слом</w>": 6742,
      "слой</w>": 6743,
      "словах</w>": 6744,
      "вшимися</w>": 6745,
      "хам</w>": 6746,
      "хать</w>": 6747,
      "другу</w>": 6748,
      "другая</w>": 6749,
      "долгу</w>": 6750,
      "говор</w>": 6751,
      "слуг</w>": 6752,
      "муся</w>": 6753,
      "скался</w>": 6754,
      "болью</w>": 6755,
      "оставался</w>": 6756,
      "оставшиеся</w>": 6757,
      "следил</w>": 6758,
      "слегка</w>": 6759,
      "континен": 6760,
      "плеч</w>": 6761,
      "тянуть</w>": 6762,
      "циально</w>": 6763,
      "времен</w>": 6764,
      "цели</w>": 6765,
      "целое</w>": 6766,
      "спорить</w>": 6767,
      "ченно</w>": 6768,
      "ченную</w>": 6769,
      "преды</w>": 6770,
      "предсказ": 6771,
      "смотря": 6772,
      "сторон": 6773,
      "щать</w>": 6774,
      "ответом</w>": 6775,
      "дерга": 6776,
      "ственный</w>": 6777,
      "ственным</w>": 6778,
      "взглянула</w>": 6779,
      "взглянув</w>": 6780,
      "тропу</w>": 6781,
      "встала</w>": 6782,
      "встали</w>": 6783,
      "ходим</w>": 6784,
      "испу": 6785,
      "замеша": 6786,
      "мертвым</w>": 6787,
      "сержа": 6788,
      "черным</w>": 6789,
      "страннику</w>": 6790,
      "началь": 6791,
      "шенная</w>": 6792,
      "женщинам</w>": 6793,
      "правильный</w>": 6794,
      "поняли</w>": 6795,
      "противник</w>": 6796,
      "колле": 6797,
      "крилло</w>": 6798,
      "обращая</w>": 6799,
      "спит</w>": 6800,
      "строй": 6801,
      "строго</w>": 6802,
      "дятся</w>": 6803,
      "дядя</w>": 6804,
      "ставила</w>": 6805,
      "казался</w>": 6806,
      "смерто": 6807,
      "поход</w>": 6808,
      "двой": 6809,
      "мяса</w>": 6810,
      "волну": 6811,
      "действует</w>": 6812,
      "мысли": 6813,
      "смехом</w>": 6814,
      "умеет</w>": 6815,
      "считая</w>": 6816,
      "человеческой</w>": 6817,
      "толку</w>": 6818,
      "толпа</w>": 6819,
      "толпе</w>": 6820,
      "высокой</w>": 6821,
      "высоких</w>": 6822,
      "последних</w>": 6823,
      "остановившись</w>": 6824,
      "дрожа</w>": 6825,
      "уме</w>": 6826,
      "имел</w>": 6827,
      "имела</w>": 6828,
      "плиту</w>": 6829,
      "гордо": 6830,
      "архи": 6831,
      "свобода</w>": 6832,
      "лучший</w>": 6833,
      "сердцем</w>": 6834,
      "собственную</w>": 6835,
      "каменное</w>": 6836,
      "каменная</w>": 6837,
      "клюв</w>": 6838,
      "ключи": 6839,
      "дьми</w>": 6840,
      "башне</w>": 6841,
      "победи": 6842,
      "победу</w>": 6843,
      "вторая</w>": 6844,
      "темный</w>": 6845,
      "темных</w>": 6846,
      "решили</w>": 6847,
      "приятель</w>": 6848,
      "следов</w>": 6849,
      "длинный</w>": 6850,
      "улица</w>": 6851,
      "улицах</w>": 6852,
      "главным</w>": 6853,
      "склонился</w>": 6854,
      "вопросов</w>": 6855,
      "ант</w>": 6856,
      "вшее</w>": 6857,
      "появится</w>": 6858,
      "согласно</w>": 6859,
      "пальцем</w>": 6860,
      "потеряли</w>": 6861,
      "интересу": 6862,
      "ожидал</w>": 6863,
      "проворчал</w>": 6864,
      "команду": 6865,
      "команду</w>": 6866,
      "пятнадцати</w>": 6867,
      "собирается</w>": 6868,
      "вернутся</w>": 6869,
      "старше</w>": 6870,
      "проклятие</w>": 6871,
      "сильный</w>": 6872,
      "закрыла</w>": 6873,
      "ощутил</w>": 6874,
      "мешки</w>": 6875,
      "объявля": 6876,
      "позабо": 6877,
      "скользнула</w>": 6878,
      "девочку</w>": 6879,
      "ударила</w>": 6880,
      "клад": 6881,
      "выбрала</w>": 6882,
      "северо</w>": 6883,
      "слушай</w>": 6884,
      "ладонью</w>": 6885,
      "крепче</w>": 6886,
      "занять</w>": 6887,
      "пробормотала</w>": 6888,
      "помощи</w>": 6889,
      "единственным</w>": 6890,
      "основания</w>": 6891,
      "фехто": 6892,
      "прошлом</w>": 6893,
      "ярости</w>": 6894,
      "причин</w>": 6895,
      "входу</w>": 6896,
      "громадные</w>": 6897,
      "очереди</w>": 6898,
      "тартенал</w>": 6899,
      "игра</w>": 6900,
      "одинокий</w>": 6901,
      "начинается</w>": 6902,
      "умирают</w>": 6903,
      "предложил</w>": 6904,
      "пронз": 6905,
      "подобные</w>": 6906,
      "подобного</w>": 6907,
      "жертву</w>": 6908,
      "группиров": 6909,
      "застыли</w>": 6910,
      "застыла</w>": 6911,
      "собрались</w>": 6912,
      "дюжина</w>": 6913,
      "падение</w>": 6914,
      "охранник</w>": 6915,
      "многочислен": 6916,
      "бесконечные</w>": 6917,
      "беспоря": 6918,
      "слышали</w>": 6919,
      "бойню</w>": 6920,
      "беспокойся</w>": 6921,
      "крепость</w>": 6922,
      "явился</w>": 6923,
      "поражение</w>": 6924,
      "находился</w>": 6925,
      "хруст": 6926,
      "заблу": 6927,
      "забвение</w>": 6928,
      "возвращаться</w>": 6929,
      "оставили</w>": 6930,
      "подозреваю</w>": 6931,
      "площадь</w>": 6932,
      "посмотреть</w>": 6933,
      "предупредить</w>": 6934,
      "балли": 6935,
      "выбора</w>": 6936,
      "поспешил</w>": 6937,
      "конечности</w>": 6938,
      "неподвижно</w>": 6939,
      "пью": 6940,
      "пья": 6941,
      "постели</w>": 6942,
      "бригады</w>": 6943,
      "слабости</w>": 6944,
      "забрать</w>": 6945,
      "добрался</w>": 6946,
      "представляю</w>": 6947,
      "аккура": 6948,
      "клыка": 6949,
      "секрет</w>": 6950,
      "преступление</w>": 6951,
      "ублалы</w>": 6952,
      "ублалу</w>": 6953,
      "исключи": 6954,
      "приближается</w>": 6955,
      "вально</w>": 6956,
      "равнине</w>": 6957,
      "багровой</w>": 6958,
      "багровая</w>": 6959,
      "произойдет</w>": 6960,
      "результате</w>": 6961,
      "капитана</w>": 6962,
      "тепло</w>": 6963,
      "стоило</w>": 6964,
      "вьте</w>": 6965,
      "оказаться</w>": 6966,
      "аллеи</w>": 6967,
      "задумался</w>": 6968,
      "легионы</w>": 6969,
      "синецветье</w>": 6970,
      "младший</w>": 6971,
      "капюш": 6972,
      "скром": 6973,
      "доверять</w>": 6974,
      "десятник</w>": 6975,
      "болезнен": 6976,
      "вцепился</w>": 6977,
      "идиот": 6978,
      "четко</w>": 6979,
      "челюсти</w>": 6980,
      "убьет</w>": 6981,
      "шпионы</w>": 6982,
      "мостовой</w>": 6983,
      "богатства</w>": 6984,
      "учени": 6985,
      "религи": 6986,
      "боишься</w>": 6987,
      "поморщился</w>": 6988,
      "плитках</w>": 6989,
      "хвост</w>": 6990,
      "ловушку</w>": 6991,
      "паути": 6992,
      "валуны</w>": 6993,
      "владения</w>": 6994,
      "берутся</w>": 6995,
      "тоблакай</w>": 6996,
      "сочувствия</w>": 6997,
      "избавиться</w>": 6998,
      "безмятежный</w>": 6999,
      "металла</w>": 7000,
      "беспокоиться</w>": 7001,
      "удовлетво": 7002,
      "тихий</w>": 7003,
      "скамье</w>": 7004,
      "демонстри": 7005,
      "касается</w>": 7006,
      "надцатая</w>": 7007,
      "пятеро</w>": 7008,
      "молодого</w>": 7009,
      "равнодуш": 7010,
      "поисках</w>": 7011,
      "пепла</w>": 7012,
      "подобие</w>": 7013,
      "затих</w>": 7014,
      "шестьдесят</w>": 7015,
      "секунду</w>": 7016,
      "фрагмен": 7017,
      "напрасно</w>": 7018,
      "содержимое</w>": 7019,
      "найденыш</w>": 7020,
      "улшун</w>": 7021,
      "оцепен": 7022,
      "кашель</w>": 7023,
      "кавалери": 7024,
      "смотрят</w>": 7025,
      "ам": 7026,
      "вло": 7027,
      "вные</w>": 7028,
      "вное</w>": 7029,
      "вступил</w>": 7030,
      "вшаяся</w>": 7031,
      "гал": 7032,
      "галь": 7033,
      "гало</w>": 7034,
      "гнули</w>": 7035,
      "грыз": 7036,
      "дны</w>": 7037,
      "дро</w>": 7038,
      "ели</w>": 7039,
      "еды</w>": 7040,
      "емый</w>": 7041,
      "жалась</w>": 7042,
      "здра": 7043,
      "иное</w>": 7044,
      "кни": 7045,
      "крю": 7046,
      "лением</w>": 7047,
      "лению</w>": 7048,
      "нта": 7049,
      "нками</w>": 7050,
      "опла": 7051,
      "осме": 7052,
      "онов</w>": 7053,
      "озада": 7054,
      "особы": 7055,
      "оке": 7056,
      "пале": 7057,
      "рпи": 7058,
      "сп</w>": 7059,
      "сна</w>": 7060,
      "ссо": 7061,
      "смен": 7062,
      "сной</w>": 7063,
      "слю": 7064,
      "свали": 7065,
      "счаст": 7066,
      "тнул</w>": 7067,
      "тение</w>": 7068,
      "тными</w>": 7069,
      "талось</w>": 7070,
      "ул</w>": 7071,
      "умо": 7072,
      "уту": 7073,
      "укло": 7074,
      "указа": 7075,
      "ухватил</w>": 7076,
      "утра</w>": 7077,
      "убрал</w>": 7078,
      "указал</w>": 7079,
      "ффе": 7080,
      "хро": 7081,
      "хим</w>": 7082,
      "хнули</w>": 7083,
      "член": 7084,
      "чье</w>": 7085,
      "чений</w>": 7086,
      "чению</w>": 7087,
      "чок</w>": 7088,
      "штан": 7089,
      "шкура": 7090,
      "щением</w>": 7091,
      "эффе": 7092,
      "югу</w>": 7093,
      "пораз": 7094,
      "поса": 7095,
      "поту": 7096,
      "постра": 7097,
      "повед": 7098,
      "польз": 7099,
      "пожела": 7100,
      "помимо</w>": 7101,
      "поступил</w>": 7102,
      "понрави": 7103,
      "поговорю</w>": 7104,
      "посовето": 7105,
      "расту": 7106,
      "рады</w>": 7107,
      "росто": 7108,
      "роты</w>": 7109,
      "нату": 7110,
      "направ": 7111,
      "навсегда</w>": 7112,
      "наказа": 7113,
      "научи": 7114,
      "наслед": 7115,
      "коша": 7116,
      "ковые</w>": 7117,
      "ено": 7118,
      "ена</w>": 7119,
      "енным</w>": 7120,
      "вож": 7121,
      "воль</w>": 7122,
      "водя</w>": 7123,
      "вошли</w>": 7124,
      "вошла</w>": 7125,
      "водой</w>": 7126,
      "воору": 7127,
      "тош": 7128,
      "тость</w>": 7129,
      "ногой</w>": 7130,
      "ностях</w>": 7131,
      "камор": 7132,
      "нив</w>": 7133,
      "ница": 7134,
      "некогда</w>": 7135,
      "недви": 7136,
      "непросто</w>": 7137,
      "неяс": 7138,
      "неволь": 7139,
      "нешься</w>": 7140,
      "некоторых</w>": 7141,
      "неплохо</w>": 7142,
      "неправильно</w>": 7143,
      "невозмути": 7144,
      "руга": 7145,
      "рует</w>": 7146,
      "руют</w>": 7147,
      "рек</w>": 7148,
      "решен": 7149,
      "речи</w>": 7150,
      "репти": 7151,
      "рит</w>": 7152,
      "моль": 7153,
      "мокры": 7154,
      "заши": 7155,
      "загля": 7156,
      "забыли</w>": 7157,
      "забыть</w>": 7158,
      "теми</w>": 7159,
      "логи": 7160,
      "дока": 7161,
      "довери": 7162,
      "доносились</w>": 7163,
      "лета": 7164,
      "левая</w>": 7165,
      "вано</w>": 7166,
      "ваны</w>": 7167,
      "вавшие</w>": 7168,
      "детали</w>": 7169,
      "депози": 7170,
      "горе</w>": 7171,
      "гоцен": 7172,
      "гостей</w>": 7173,
      "гостями</w>": 7174,
      "вины</w>": 7175,
      "винова": 7176,
      "лит</w>": 7177,
      "лиши": 7178,
      "ливый</w>": 7179,
      "таешь</w>": 7180,
      "такими</w>": 7181,
      "проли": 7182,
      "проще</w>": 7183,
      "пробира": 7184,
      "пройдя</w>": 7185,
      "протекто": 7186,
      "проигры": 7187,
      "див</w>": 7188,
      "дира": 7189,
      "дишь</w>": 7190,
      "совет": 7191,
      "ведут</w>": 7192,
      "ветром</w>": 7193,
      "бод": 7194,
      "боги": 7195,
      "богом</w>": 7196,
      "бояться</w>": 7197,
      "боятся</w>": 7198,
      "меха": 7199,
      "мечей</w>": 7200,
      "местах</w>": 7201,
      "выс": 7202,
      "выну": 7203,
      "тим</w>": 7204,
      "тило</w>": 7205,
      "прие": 7206,
      "причу": 7207,
      "прибыли</w>": 7208,
      "призы": 7209,
      "приподня": 7210,
      "придут</w>": 7211,
      "придержи": 7212,
      "пришло</w>": 7213,
      "приобре": 7214,
      "ческом</w>": 7215,
      "серой</w>": 7216,
      "манев": 7217,
      "отче": 7218,
      "отпусти": 7219,
      "отличие</w>": 7220,
      "сток</w>": 7221,
      "стого</w>": 7222,
      "стано": 7223,
      "стами</w>": 7224,
      "беле": 7225,
      "белиз": 7226,
      "жия</w>": 7227,
      "живы</w>": 7228,
      "живот</w>": 7229,
      "живое</w>": 7230,
      "жилах</w>": 7231,
      "верти": 7232,
      "чают</w>": 7233,
      "обмя": 7234,
      "общего</w>": 7235,
      "общем</w>": 7236,
      "кирпи": 7237,
      "рыв": 7238,
      "рым</w>": 7239,
      "рыбы</w>": 7240,
      "чика</w>": 7241,
      "чистот": 7242,
      "ляю</w>": 7243,
      "разли": 7244,
      "разду": 7245,
      "вспомина": 7246,
      "вскинул</w>": 7247,
      "вспомнить</w>": 7248,
      "сая</w>": 7249,
      "саму</w>": 7250,
      "сающей</w>": 7251,
      "жек</w>": 7252,
      "пари": 7253,
      "шея</w>": 7254,
      "преследу": 7255,
      "преодоле": 7256,
      "превосхо": 7257,
      "преимуще": 7258,
      "щик</w>": 7259,
      "щихся</w>": 7260,
      "тьме</w>": 7261,
      "пей</w>": 7262,
      "песке</w>": 7263,
      "ряб": 7264,
      "рять</w>": 7265,
      "няется</w>": 7266,
      "няют</w>": 7267,
      "куп": 7268,
      "кучи</w>": 7269,
      "трупа</w>": 7270,
      "жадность</w>": 7271,
      "мить</w>": 7272,
      "шатер</w>": 7273,
      "шагнула</w>": 7274,
      "подвер": 7275,
      "подаль": 7276,
      "пун": 7277,
      "пустые</w>": 7278,
      "пустая</w>": 7279,
      "пустот": 7280,
      "пережи": 7281,
      "перешел</w>": 7282,
      "перестал</w>": 7283,
      "переулок</w>": 7284,
      "пись": 7285,
      "суть</w>": 7286,
      "сузи": 7287,
      "расши": 7288,
      "расстро": 7289,
      "рассла": 7290,
      "расцве": 7291,
      "праши": 7292,
      "взма": 7293,
      "терпение</w>": 7294,
      "возме": 7295,
      "бам</w>": 7296,
      "удивления</w>": 7297,
      "удивленно</w>": 7298,
      "крышку</w>": 7299,
      "поспать</w>": 7300,
      "крово": 7301,
      "тельную</w>": 7302,
      "тельницы</w>": 7303,
      "словом</w>": 7304,
      "мыми</w>": 7305,
      "вшимся</w>": 7306,
      "стражи</w>": 7307,
      "женными</w>": 7308,
      "чужи": 7309,
      "чужа": 7310,
      "большим</w>": 7311,
      "оставаться</w>": 7312,
      "слезы</w>": 7313,
      "конву": 7314,
      "полный</w>": 7315,
      "полная</w>": 7316,
      "полночь</w>": 7317,
      "губами</w>": 7318,
      "тятся</w>": 7319,
      "тянулась</w>": 7320,
      "алии</w>": 7321,
      "ченного</w>": 7322,
      "предмет</w>": 7323,
      "брон": 7324,
      "сторонам</w>": 7325,
      "кругом</w>": 7326,
      "делах</w>": 7327,
      "делами</w>": 7328,
      "щейся</w>": 7329,
      "думай</w>": 7330,
      "троих</w>": 7331,
      "тропа</w>": 7332,
      "тронной</w>": 7333,
      "дышать</w>": 7334,
      "один": 7335,
      "ходило</w>": 7336,
      "исцели": 7337,
      "халлом</w>": 7338,
      "странная</w>": 7339,
      "летерийского</w>": 7340,
      "земле": 7341,
      "началом</w>": 7342,
      "фан</w>": 7343,
      "спек": 7344,
      "правил</w>": 7345,
      "степен": 7346,
      "королей</w>": 7347,
      "полуклюв</w>": 7348,
      "молчали</w>": 7349,
      "молчала</w>": 7350,
      "двигался</w>": 7351,
      "светом</w>": 7352,
      "удастся</w>": 7353,
      "хорошая</w>": 7354,
      "положено</w>": 7355,
      "дорого</w>": 7356,
      "сделай</w>": 7357,
      "сделаю</w>": 7358,
      "траги": 7359,
      "корней</w>": 7360,
      "корзи": 7361,
      "границы</w>": 7362,
      "инфор": 7363,
      "орфан</w>": 7364,
      "пояса</w>": 7365,
      "похож</w>": 7366,
      "потолок</w>": 7367,
      "пустим</w>": 7368,
      "хозяйка</w>": 7369,
      "волно": 7370,
      "волнами</w>": 7371,
      "торчали</w>": 7372,
      "улыбке</w>": 7373,
      "улыбнувшись</w>": 7374,
      "клянусь</w>": 7375,
      "буруку</w>": 7376,
      "ведьме</w>": 7377,
      "убрен": 7378,
      "готов": 7379,
      "человеку</w>": 7380,
      "высоты</w>": 7381,
      "высоким</w>": 7382,
      "ствую</w>": 7383,
      "последняя</w>": 7384,
      "последствия</w>": 7385,
      "слабе": 7386,
      "славы</w>": 7387,
      "глазам</w>": 7388,
      "неслась</w>": 7389,
      "ненные</w>": 7390,
      "влаж": 7391,
      "имеешь</w>": 7392,
      "десяти": 7393,
      "горя</w>": 7394,
      "свободные</w>": 7395,
      "ступили</w>": 7396,
      "хватить</w>": 7397,
      "легче</w>": 7398,
      "потеря</w>": 7399,
      "фигур</w>": 7400,
      "вось": 7401,
      "воска</w>": 7402,
      "ужасно</w>": 7403,
      "формен": 7404,
      "сомни": 7405,
      "собственные</w>": 7406,
      "бледное</w>": 7407,
      "ческим</w>": 7408,
      "ческую</w>": 7409,
      "жалоб": 7410,
      "веревку</w>": 7411,
      "бесформен": 7412,
      "двух": 7413,
      "темно</w>": 7414,
      "следовать</w>": 7415,
      "ночной</w>": 7416,
      "камнями</w>": 7417,
      "ровным</w>": 7418,
      "большом</w>": 7419,
      "громкий</w>": 7420,
      "громче</w>": 7421,
      "охрану</w>": 7422,
      "ждает</w>": 7423,
      "звука</w>": 7424,
      "звучал</w>": 7425,
      "мгновений</w>": 7426,
      "сверк</w>": 7427,
      "молодые</w>": 7428,
      "холодно</w>": 7429,
      "приближались</w>": 7430,
      "взяли</w>": 7431,
      "чувствовать</w>": 7432,
      "наверху</w>": 7433,
      "низкий</w>": 7434,
      "носить</w>": 7435,
      "вленные</w>": 7436,
      "зубами</w>": 7437,
      "западу</w>": 7438,
      "принял</w>": 7439,
      "приняла</w>": 7440,
      "широкой</w>": 7441,
      "широким</w>": 7442,
      "позволь</w>": 7443,
      "пятнадцать</w>": 7444,
      "подозр": 7445,
      "подозрения</w>": 7446,
      "считают</w>": 7447,
      "грязь</w>": 7448,
      "грязные</w>": 7449,
      "грязью</w>": 7450,
      "уничтожение</w>": 7451,
      "обычного</w>": 7452,
      "полагал</w>": 7453,
      "защита</w>": 7454,
      "защитить</w>": 7455,
      "внезапный</w>": 7456,
      "цвет</w>": 7457,
      "обеими</w>": 7458,
      "верил</w>": 7459,
      "сильнее</w>": 7460,
      "возвращались</w>": 7461,
      "судьбы</w>": 7462,
      "ощущал</w>": 7463,
      "холм</w>": 7464,
      "искале": 7465,
      "ледяных</w>": 7466,
      "ледяная</w>": 7467,
      "ледяную</w>": 7468,
      "зывается</w>": 7469,
      "тащили</w>": 7470,
      "найди</w>": 7471,
      "девочки</w>": 7472,
      "строились</w>": 7473,
      "плыть</w>": 7474,
      "северу</w>": 7475,
      "убийца</w>": 7476,
      "объяснил</w>": 7477,
      "обнаружили</w>": 7478,
      "обнаружила</w>": 7479,
      "потребу": 7480,
      "достиг</w>": 7481,
      "превратился</w>": 7482,
      "исполи": 7483,
      "прошлое</w>": 7484,
      "причине</w>": 7485,
      "богатый</w>": 7486,
      "изменить</w>": 7487,
      "кончится</w>": 7488,
      "попробо": 7489,
      "попросил</w>": 7490,
      "бремя</w>": 7491,
      "доспехах</w>": 7492,
      "одинокая</w>": 7493,
      "всякого</w>": 7494,
      "уставилась</w>": 7495,
      "становилось</w>": 7496,
      "чародейства</w>": 7497,
      "утоми": 7498,
      "воевать</w>": 7499,
      "старика</w>": 7500,
      "группы</w>": 7501,
      "особо</w>": 7502,
      "плотную</w>": 7503,
      "меняется</w>": 7504,
      "канцл": 7505,
      "вызвать</w>": 7506,
      "вскочил</w>": 7507,
      "охранников</w>": 7508,
      "добятся</w>": 7509,
      "выполнить</w>": 7510,
      "присутству": 7511,
      "гарнизо": 7512,
      "ткнулся</w>": 7513,
      "возможности</w>": 7514,
      "бойни</w>": 7515,
      "глиня": 7516,
      "чувствуя</w>": 7517,
      "нервы</w>": 7518,
      "находится</w>": 7519,
      "ножом</w>": 7520,
      "фургона</w>": 7521,
      "ющегося</w>": 7522,
      "могильника</w>": 7523,
      "способ</w>": 7524,
      "приблизились</w>": 7525,
      "обещаю</w>": 7526,
      "углом</w>": 7527,
      "фона": 7528,
      "обман</w>": 7529,
      "поднимаясь</w>": 7530,
      "острый</w>": 7531,
      "связь</w>": 7532,
      "связки</w>": 7533,
      "вспышка</w>": 7534,
      "страшным</w>": 7535,
      "центр</w>": 7536,
      "идея</w>": 7537,
      "офице": 7538,
      "повтори": 7539,
      "новому</w>": 7540,
      "коротко</w>": 7541,
      "площади</w>": 7542,
      "блестящими</w>": 7543,
      "делить</w>": 7544,
      "делисп</w>": 7545,
      "вытащить</w>": 7546,
      "раскрыл</w>": 7547,
      "крысолов</w>": 7548,
      "поспешно</w>": 7549,
      "охотники</w>": 7550,
      "разрушен": 7551,
      "одиночник</w>": 7552,
      "пронзительный</w>": 7553,
      "жилище</w>": 7554,
      "каждому</w>": 7555,
      "семьдесят</w>": 7556,
      "сестра</w>": 7557,
      "печаль": 7558,
      "возразила</w>": 7559,
      "шерстя": 7560,
      "закашля": 7561,
      "серьезно</w>": 7562,
      "учитывая</w>": 7563,
      "труднее</w>": 7564,
      "крылья</w>": 7565,
      "удовольствия</w>": 7566,
      "кулак</w>": 7567,
      "цивилизация</w>": 7568,
      "калас</w>": 7569,
      "калача</w>": 7570,
      "погибших</w>": 7571,
      "разошлись</w>": 7572,
      "третьего</w>": 7573,
      "третьей</w>": 7574,
      "гигант</w>": 7575,
      "оставляя</w>": 7576,
      "вершине</w>": 7577,
      "оценить</w>": 7578,
      "уважение</w>": 7579,
      "понадобятся</w>": 7580,
      "поляне</w>": 7581,
      "поляны</w>": 7582,
      "завтра": 7583,
      "замолчи</w>": 7584,
      "мастерство</w>": 7585,
      "рыбак</w>": 7586,
      "разобраться</w>": 7587,
      "сумел</w>": 7588,
      "терпеливо</w>": 7589,
      "стражников</w>": 7590,
      "окропленный</w>": 7591,
      "озеро</w>": 7592,
      "каттер": 7593,
      "доверя": 7594,
      "проблема</w>": 7595,
      "присоединился</w>": 7596,
      "мусора</w>": 7597,
      "предназначение</w>": 7598,
      "двигаться</w>": 7599,
      "имасс</w>": 7600,
      "неведо": 7601,
      "девят": 7602,
      "прогрес": 7603,
      "челюсть</w>": 7604,
      "горожан</w>": 7605,
      "насекомые</w>": 7606,
      "фланге</w>": 7607,
      "неизбежно</w>": 7608,
      "мостовую</w>": 7609,
      "договор</w>": 7610,
      "отреаги": 7611,
      "послал</w>": 7612,
      "дружок</w>": 7613,
      "службу</w>": 7614,
      "помогает</w>": 7615,
      "окна</w>": 7616,
      "вождя</w>": 7617,
      "вождь</w>": 7618,
      "разнообраз": 7619,
      "предстояло</w>": 7620,
      "справиться</w>": 7621,
      "погрузи": 7622,
      "дикари</w>": 7623,
      "обсудить</w>": 7624,
      "посланник</w>": 7625,
      "уровне</w>": 7626,
      "зазубрен": 7627,
      "сожалению</w>": 7628,
      "отшатнулся</w>": 7629,
      "грохотом</w>": 7630,
      "флотилии</w>": 7631,
      "ткань</w>": 7632,
      "уточнил</w>": 7633,
      "управлять</w>": 7634,
      "упорно</w>": 7635,
      "денег</w>": 7636,
      "потребовал</w>": 7637,
      "наконечник</w>": 7638,
      "мокк": 7639,
      "содрогнулся</w>": 7640,
      "выйдем</w>": 7641,
      "чешуй": 7642,
      "практически</w>": 7643,
      "понадобится</w>": 7644,
      "малейшего</w>": 7645,
      "буквально</w>": 7646,
      "железа</w>": 7647,
      "уверенно</w>": 7648,
      "поблески": 7649,
      "пользуются</w>": 7650,
      "нескольких</w>": 7651,
      "восстанов": 7652,
      "восторге</w>": 7653,
      "ошелом": 7654,
      "чрезвы": 7655,
      "ящери": 7656,
      "почерне": 7657,
      "мебель</w>": 7658,
      "приказы</w>": 7659,
      "взревел</w>": 7660,
      "удаля": 7661,
      "осведоми": 7662,
      "взаим": 7663,
      "сотряса": 7664,
      "вытаращи": 7665,
      "подножия</w>": 7666,
      "расхаживать</w>": 7667,
      "аноман": 7668,
      "уперев</w>": 7669,
      "заморгал</w>": 7670,
      "мамаша</w>": 7671,
      "изящ": 7672,
      "смертонос": 7673,
      "пьюл</w>": 7674,
      "аккуратно</w>": 7675,
      "палец</w>": 7676,
      "утулу</w>": 7677,
      "штандар": 7678,
      "депозита": 7679,
      "причудли": 7680,
      "подальше</w>": 7681,
      "информа": 7682,
      "атри</w>": 7683,
      "бхо": 7684,
      "бка</w>": 7685,
      "баль": 7686,
      "вра</w>": 7687,
      "вном</w>": 7688,
      "взаме": 7689,
      "вдали</w>": 7690,
      "вправо</w>": 7691,
      "гало": 7692,
      "дало</w>": 7693,
      "двести</w>": 7694,
      "днев": 7695,
      "емой</w>": 7696,
      "жени": 7697,
      "жки</w>": 7698,
      "жная</w>": 7699,
      "жность</w>": 7700,
      "ждем</w>": 7701,
      "звя": 7702,
      "зрели": 7703,
      "истре": 7704,
      "йдут</w>": 7705,
      "каль": 7706,
      "ктом</w>": 7707,
      "кнов": 7708,
      "кция</w>": 7709,
      "лле": 7710,
      "лже": 7711,
      "мте</w>": 7712,
      "нений</w>": 7713,
      "оре": 7714,
      "опере": 7715,
      "очу": 7716,
      "очер": 7717,
      "осмотрел</w>": 7718,
      "окажется</w>": 7719,
      "осозна": 7720,
      "пками</w>": 7721,
      "пнула</w>": 7722,
      "смы": 7723,
      "сгру": 7724,
      "тр</w>": 7725,
      "тна</w>": 7726,
      "тном</w>": 7727,
      "тще": 7728,
      "тках</w>": 7729,
      "тников</w>": 7730,
      "ур": 7731,
      "уле": 7732,
      "унять</w>": 7733,
      "увидишь</w>": 7734,
      "устреми": 7735,
      "ущер": 7736,
      "усыпа": 7737,
      "уяз": 7738,
      "хли</w>": 7739,
      "хнулась</w>": 7740,
      "худ": 7741,
      "чался</w>": 7742,
      "чью</w>": 7743,
      "шали</w>": 7744,
      "штра": 7745,
      "шением</w>": 7746,
      "щет</w>": 7747,
      "ье": 7748,
      "эй": 7749,
      "эк": 7750,
      "эй</w>": 7751,
      "эне": 7752,
      "юдо": 7753,
      "ющуюся</w>": 7754,
      "яру": 7755,
      "ялась</w>": 7756,
      "явля": 7757,
      "янно</w>": 7758,
      "пое": 7759,
      "поль": 7760,
      "поче": 7761,
      "поми": 7762,
      "покой</w>": 7763,
      "позо": 7764,
      "поступ": 7765,
      "покори": 7766,
      "покинул</w>": 7767,
      "рай": 7768,
      "раду": 7769,
      "растя": 7770,
      "род</w>": 7771,
      "рота</w>": 7772,
      "росли</w>": 7773,
      "наста": 7774,
      "напа": 7775,
      "нанима": 7776,
      "назо": 7777,
      "насы": 7778,
      "нации</w>": 7779,
      "начать</w>": 7780,
      "насквозь</w>": 7781,
      "напали</w>": 7782,
      "насили": 7783,
      "натяну": 7784,
      "набрать</w>": 7785,
      "кора": 7786,
      "костя": 7787,
      "костями</w>": 7788,
      "костер</w>": 7789,
      "вор</w>": 7790,
      "вора</w>": 7791,
      "водоро": 7792,
      "вонь</w>": 7793,
      "ног": 7794,
      "носа</w>": 7795,
      "капе": 7796,
      "какими</w>": 7797,
      "ниц</w>": 7798,
      "ничуть</w>": 7799,
      "некуда</w>": 7800,
      "недостаточно</w>": 7801,
      "незнаком": 7802,
      "рулл</w>": 7803,
      "русло</w>": 7804,
      "реме": 7805,
      "река</w>": 7806,
      "решения</w>": 7807,
      "рин": 7808,
      "моти": 7809,
      "мокро": 7810,
      "морем</w>": 7811,
      "зад": 7812,
      "зап": 7813,
      "засто": 7814,
      "запу": 7815,
      "запросто</w>": 7816,
      "заморо": 7817,
      "закан": 7818,
      "захочет</w>": 7819,
      "заставил</w>": 7820,
      "зашевели": 7821,
      "забери</w>": 7822,
      "заглянул</w>": 7823,
      "теле": 7824,
      "теги": 7825,
      "телен</w>": 7826,
      "телях</w>": 7827,
      "лаг": 7828,
      "лох": 7829,
      "ломи": 7830,
      "лость</w>": 7831,
      "договори": 7832,
      "доволен</w>": 7833,
      "дозор": 7834,
      "допустим</w>": 7835,
      "лет": 7836,
      "лечить</w>": 7837,
      "летий</w>": 7838,
      "вашу</w>": 7839,
      "ванию</w>": 7840,
      "дежу": 7841,
      "делала</w>": 7842,
      "гость</w>": 7843,
      "нутри</w>": 7844,
      "висе": 7845,
      "висел</w>": 7846,
      "лист": 7847,
      "лили</w>": 7848,
      "линии</w>": 7849,
      "личный</w>": 7850,
      "листья</w>": 7851,
      "льного</w>": 7852,
      "льдом</w>": 7853,
      "тат</w>": 7854,
      "таться</w>": 7855,
      "тание</w>": 7856,
      "танный</w>": 7857,
      "пробе": 7858,
      "пропу": 7859,
      "провел</w>": 7860,
      "проходя</w>": 7861,
      "просматри": 7862,
      "провозгла": 7863,
      "дая</w>": 7864,
      "дара</w>": 7865,
      "давая</w>": 7866,
      "дикой</w>": 7867,
      "дикие</w>": 7868,
      "соч": 7869,
      "солен": 7870,
      "сострадание</w>": 7871,
      "вело</w>": 7872,
      "веща": 7873,
      "веками</w>": 7874,
      "вещей</w>": 7875,
      "бока</w>": 7876,
      "богу</w>": 7877,
      "мех</w>": 7878,
      "меж</w>": 7879,
      "мечу</w>": 7880,
      "выби": 7881,
      "выцвет": 7882,
      "хожу</w>": 7883,
      "тием</w>": 7884,
      "тирая</w>": 7885,
      "прихо": 7886,
      "припа": 7887,
      "принес": 7888,
      "привид": 7889,
      "приходит</w>": 7890,
      "принести</w>": 7891,
      "приходят</w>": 7892,
      "приказал</w>": 7893,
      "привяза": 7894,
      "приписы": 7895,
      "приберись</w>": 7896,
      "седой</w>": 7897,
      "бывший</w>": 7898,
      "оты": 7899,
      "отва": 7900,
      "откро": 7901,
      "отчего</w>": 7902,
      "отрази": 7903,
      "отпеча": 7904,
      "отреза": 7905,
      "отказы": 7906,
      "отпуска": 7907,
      "отыскать</w>": 7908,
      "отныне</w>": 7909,
      "став": 7910,
      "бесе": 7911,
      "бежала</w>": 7912,
      "белых</w>": 7913,
      "живого</w>": 7914,
      "жителей</w>": 7915,
      "веря</w>": 7916,
      "верит</w>": 7917,
      "шила</w>": 7918,
      "шишь</w>": 7919,
      "чаю</w>": 7920,
      "чаше": 7921,
      "обли": 7922,
      "обжи": 7923,
      "обси": 7924,
      "обход</w>": 7925,
      "обмен</w>": 7926,
      "обхватил</w>": 7927,
      "кин</w>": 7928,
      "кито": 7929,
      "кипа": 7930,
      "кивну": 7931,
      "рыца": 7932,
      "чис": 7933,
      "чия</w>": 7934,
      "сило": 7935,
      "сили</w>": 7936,
      "сило</w>": 7937,
      "ситу": 7938,
      "сидя</w>": 7939,
      "ляр": 7940,
      "разы": 7941,
      "разга": 7942,
      "разрази": 7943,
      "вспле": 7944,
      "вскри": 7945,
      "всхли": 7946,
      "менно</w>": 7947,
      "менять</w>": 7948,
      "пач": 7949,
      "пах</w>": 7950,
      "пати": 7951,
      "пары</w>": 7952,
      "шелся</w>": 7953,
      "предал</w>": 7954,
      "презри": 7955,
      "щип": 7956,
      "щийся</w>": 7957,
      "гаю</w>": 7958,
      "гатель</w>": 7959,
      "гаран": 7960,
      "няки</w>": 7961,
      "няясь</w>": 7962,
      "купи": 7963,
      "труда</w>": 7964,
      "трупами</w>": 7965,
      "жают</w>": 7966,
      "жажду</w>": 7967,
      "миро": 7968,
      "мини": 7969,
      "мири": 7970,
      "мись</w>": 7971,
      "миром</w>": 7972,
      "шагу</w>": 7973,
      "шагом</w>": 7974,
      "подра": 7975,
      "подви": 7976,
      "подта": 7977,
      "подда": 7978,
      "подался</w>": 7979,
      "подчер": 7980,
      "подразуме": 7981,
      "подборо": 7982,
      "подходя</w>": 7983,
      "подскочил</w>": 7984,
      "пустя": 7985,
      "передо": 7986,
      "переме": 7987,
      "перемен": 7988,
      "перебра": 7989,
      "передо</w>": 7990,
      "переверну": 7991,
      "пики</w>": 7992,
      "скому</w>": 7993,
      "скоман": 7994,
      "сукин</w>": 7995,
      "распа": 7996,
      "распло": 7997,
      "расскажи</w>": 7998,
      "рассыпа": 7999,
      "праж": 8000,
      "прал</w>": 8001,
      "правы</w>": 8002,
      "праведли": 8003,
      "взор": 8004,
      "ленная</w>": 8005,
      "издале": 8006,
      "изнутри</w>": 8007,
      "терб": 8008,
      "люсь</w>": 8009,
      "людя": 8010,
      "крыси": 8011,
      "трес": 8012,
      "тулови": 8013,
      "ждением</w>": 8014,
      "тельств</w>": 8015,
      "слома": 8016,
      "сложно</w>": 8017,
      "мыши</w>": 8018,
      "голово": 8019,
      "стратеги": 8020,
      "женного</w>": 8021,
      "женную</w>": 8022,
      "слугой</w>": 8023,
      "мум</w>": 8024,
      "мут</w>": 8025,
      "чусь</w>": 8026,
      "ске": 8027,
      "скрю": 8028,
      "сквор": 8029,
      "лице": 8030,
      "остаться</w>": 8031,
      "оставались</w>": 8032,
      "оставалась</w>": 8033,
      "следить</w>": 8034,
      "конь": 8035,
      "коня</w>": 8036,
      "плечу</w>": 8037,
      "стук</w>": 8038,
      "полни": 8039,
      "летеру</w>": 8040,
      "пыта</w>": 8041,
      "врез": 8042,
      "цель</w>": 8043,
      "целая</w>": 8044,
      "целью</w>": 8045,
      "ченными</w>": 8046,
      "предсказа": 8047,
      "брони</w>": 8048,
      "ведя</w>": 8049,
      "ведения</w>": 8050,
      "нимая</w>": 8051,
      "смогли</w>": 8052,
      "сможем</w>": 8053,
      "щается</w>": 8054,
      "кругами</w>": 8055,
      "ющимся</w>": 8056,
      "подоба": 8057,
      "подождать</w>": 8058,
      "подобрал</w>": 8059,
      "щел": 8060,
      "дернулся</w>": 8061,
      "думает</w>": 8062,
      "творил</w>": 8063,
      "взгляде</w>": 8064,
      "троном</w>": 8065,
      "тронный</w>": 8066,
      "вясь</w>": 8067,
      "вязать</w>": 8068,
      "красо": 8069,
      "дыры</w>": 8070,
      "дыша</w>": 8071,
      "плотно</w>": 8072,
      "исход</w>": 8073,
      "бедре</w>": 8074,
      "хватает</w>": 8075,
      "хватало</w>": 8076,
      "безу": 8077,
      "бездум": 8078,
      "бездну</w>": 8079,
      "мертвую</w>": 8080,
      "воинам</w>": 8081,
      "повернувшись</w>": 8082,
      "поверить</w>": 8083,
      "враче": 8084,
      "серыми</w>": 8085,
      "черно": 8086,
      "сый</w>": 8087,
      "летерийское</w>": 8088,
      "плат": 8089,
      "зывать</w>": 8090,
      "зывали</w>": 8091,
      "подняв</w>": 8092,
      "поднявшись</w>": 8093,
      "начнется</w>": 8094,
      "женщиной</w>": 8095,
      "городом</w>": 8096,
      "городу</w>": 8097,
      "правит</w>": 8098,
      "свежий</w>": 8099,
      "положила</w>": 8100,
      "кривой</w>": 8101,
      "борту</w>": 8102,
      "сделав</w>": 8103,
      "сделает</w>": 8104,
      "сделаешь</w>": 8105,
      "глупо</w>": 8106,
      "спины</w>": 8107,
      "спинку</w>": 8108,
      "трапе": 8109,
      "трава</w>": 8110,
      "позволь": 8111,
      "интри": 8112,
      "смерил</w>": 8113,
      "смертельной</w>": 8114,
      "похоже": 8115,
      "потока</w>": 8116,
      "потоках</w>": 8117,
      "потолка</w>": 8118,
      "пустили</w>": 8119,
      "хищ": 8120,
      "хие</w>": 8121,
      "хижи": 8122,
      "хитро": 8123,
      "хозяе": 8124,
      "действие</w>": 8125,
      "мысленно</w>": 8126,
      "оборачи": 8127,
      "обоюдо": 8128,
      "летела</w>": 8129,
      "понимание</w>": 8130,
      "буруком</w>": 8131,
      "медвеж": 8132,
      "считали</w>": 8133,
      "убью</w>": 8134,
      "правде</w>": 8135,
      "готос</w>": 8136,
      "готова</w>": 8137,
      "толстые</w>": 8138,
      "последней</w>": 8139,
      "слава</w>": 8140,
      "встречались</w>": 8141,
      "остановилось</w>": 8142,
      "несправедли": 8143,
      "дроти": 8144,
      "ренных</w>": 8145,
      "существуют</w>": 8146,
      "морю</w>": 8147,
      "цена</w>": 8148,
      "свободе</w>": 8149,
      "легкое</w>": 8150,
      "жую</w>": 8151,
      "желая</w>": 8152,
      "желаний</w>": 8153,
      "хранит</w>": 8154,
      "дверям</w>": 8155,
      "собственным</w>": 8156,
      "бледные</w>": 8157,
      "жалост": 8158,
      "ванная</w>": 8159,
      "солдата</w>": 8160,
      "блеск</w>": 8161,
      "блестели</w>": 8162,
      "веревки</w>": 8163,
      "помра": 8164,
      "бесчув": 8165,
      "успела</w>": 8166,
      "открыв</w>": 8167,
      "открыть</w>": 8168,
      "открыла</w>": 8169,
      "шансов</w>": 8170,
      "победы</w>": 8171,
      "победить</w>": 8172,
      "дреш</w>": 8173,
      "древни": 8174,
      "покрыты</w>": 8175,
      "продолжать</w>": 8176,
      "следовал</w>": 8177,
      "длиной</w>": 8178,
      "длину</w>": 8179,
      "длинных</w>": 8180,
      "казаться</w>": 8181,
      "бросилась</w>": 8182,
      "обернувшись</w>": 8183,
      "охраны</w>": 8184,
      "масля": 8185,
      "известня": 8186,
      "мгновения</w>": 8187,
      "наруши": 8188,
      "чародей</w>": 8189,
      "армией</w>": 8190,
      "взялся</w>": 8191,
      "тяжелой</w>": 8192,
      "ходящее</w>": 8193,
      "наблюд": 8194,
      "наблюдала</w>": 8195,
      "пальцев</w>": 8196,
      "евнухом</w>": 8197,
      "глой</w>": 8198,
      "потеряла</w>": 8199,
      "мрака</w>": 8200,
      "мрачно</w>": 8201,
      "трени": 8202,
      "влена</w>": 8203,
      "зубов</w>": 8204,
      "ожидать</w>": 8205,
      "ожидает</w>": 8206,
      "провод": 8207,
      "командо": 8208,
      "принялись</w>": 8209,
      "широкая</w>": 8210,
      "одежды</w>": 8211,
      "считается</w>": 8212,
      "точках</w>": 8213,
      "собираешься</w>": 8214,
      "обеих</w>": 8215,
      "обеспе": 8216,
      "огляды": 8217,
      "оглянулась</w>": 8218,
      "древко</w>": 8219,
      "проклятые</w>": 8220,
      "проклятый</w>": 8221,
      "опасно</w>": 8222,
      "опасен</w>": 8223,
      "спокойным</w>": 8224,
      "покоси": 8225,
      "востоку</w>": 8226,
      "обладает</w>": 8227,
      "дшека</w>": 8228,
      "металл</w>": 8229,
      "скользили</w>": 8230,
      "искал</w>": 8231,
      "маллей</w>": 8232,
      "империю</w>": 8233,
      "холодные</w>": 8234,
      "холодная</w>": 8235,
      "обречены</w>": 8236,
      "плыли</w>": 8237,
      "смертные</w>": 8238,
      "смертного</w>": 8239,
      "вырваться</w>": 8240,
      "объясни</w>": 8241,
      "объяснить</w>": 8242,
      "плечом</w>": 8243,
      "драконов</w>": 8244,
      "ктивно</w>": 8245,
      "языком</w>": 8246,
      "родителей</w>": 8247,
      "струйки</w>": 8248,
      "заля": 8249,
      "залы</w>": 8250,
      "тонким</w>": 8251,
      "старым</w>": 8252,
      "ждено</w>": 8253,
      "жденных</w>": 8254,
      "противобор": 8255,
      "солнцем</w>": 8256,
      "гнал</w>": 8257,
      "яростно</w>": 8258,
      "повела</w>": 8259,
      "огромная</w>": 8260,
      "серебри": 8261,
      "середине</w>": 8262,
      "худ</w>": 8263,
      "настоящая</w>": 8264,
      "настоящего</w>": 8265,
      "раздались</w>": 8266,
      "попробу": 8267,
      "попросту</w>": 8268,
      "отправиться</w>": 8269,
      "пахло</w>": 8270,
      "батальо": 8271,
      "батальоны</w>": 8272,
      "атака</w>": 8273,
      "атаку": 8274,
      "снега</w>": 8275,
      "тюрь": 8276,
      "союз</w>": 8277,
      "сражался</w>": 8278,
      "тайные</w>": 8279,
      "родная</w>": 8280,
      "названия</w>": 8281,
      "задача</w>": 8282,
      "вставай</w>": 8283,
      "увечного</w>": 8284,
      "направилась</w>": 8285,
      "завершение</w>": 8286,
      "плотнее</w>": 8287,
      "выпрямилась</w>": 8288,
      "хмыкнула</w>": 8289,
      "падались</w>": 8290,
      "скривился</w>": 8291,
      "ссия</w>": 8292,
      "лестница</w>": 8293,
      "вызвал</w>": 8294,
      "выражением</w>": 8295,
      "четвертая</w>": 8296,
      "глубины</w>": 8297,
      "признаться</w>": 8298,
      "приходили</w>": 8299,
      "разума</w>": 8300,
      "истину</w>": 8301,
      "ткнуть</w>": 8302,
      "сознания</w>": 8303,
      "способна</w>": 8304,
      "способности</w>": 8305,
      "исчезнов": 8306,
      "бороз": 8307,
      "матерью</w>": 8308,
      "мозги</w>": 8309,
      "ужасное</w>": 8310,
      "кель</w>": 8311,
      "неприятно</w>": 8312,
      "связаны</w>": 8313,
      "ножнах</w>": 8314,
      "фургоны</w>": 8315,
      "отчаяние</w>": 8316,
      "ющему</w>": 8317,
      "изучал</w>": 8318,
      "молчав</w>": 8319,
      "обещание</w>": 8320,
      "прекратился</w>": 8321,
      "торопи": 8322,
      "захвачен</w>": 8323,
      "мелькали</w>": 8324,
      "тишине</w>": 8325,
      "отвергатель</w>": 8326,
      "острием</w>": 8327,
      "приветствую</w>": 8328,
      "блестящие</w>": 8329,
      "позволят</w>": 8330,
      "союзник</w>": 8331,
      "союзники</w>": 8332,
      "балко": 8333,
      "живем</w>": 8334,
      "живешь</w>": 8335,
      "ошибка</w>": 8336,
      "охотников</w>": 8337,
      "хриплым</w>": 8338,
      "кожаные</w>": 8339,
      "кожаную</w>": 8340,
      "воспользо": 8341,
      "лагеря</w>": 8342,
      "страдания</w>": 8343,
      "одиночку</w>": 8344,
      "радости</w>": 8345,
      "напряг": 8346,
      "могилу</w>": 8347,
      "забрали</w>": 8348,
      "добраться</w>": 8349,
      "добралась</w>": 8350,
      "сопровождать</w>": 8351,
      "любят</w>": 8352,
      "погребен": 8353,
      "когти": 8354,
      "проявить</w>": 8355,
      "безумия</w>": 8356,
      "позицию</w>": 8357,
      "закончится</w>": 8358,
      "деревянных</w>": 8359,
      "исключено</w>": 8360,
      "торговца</w>": 8361,
      "торговцев</w>": 8362,
      "сжим": 8363,
      "сжима": 8364,
      "крыльев</w>": 8365,
      "цитадель</w>": 8366,
      "безразлич": 8367,
      "удовольствием</w>": 8368,
      "позволите</w>": 8369,
      "картины</w>": 8370,
      "помедлив</w>": 8371,
      "ритуала</w>": 8372,
      "обрушился</w>": 8373,
      "сердито</w>": 8374,
      "чародеи</w>": 8375,
      "выхода</w>": 8376,
      "бессмысленно</w>": 8377,
      "геро": 8378,
      "оскол": 8379,
      "схватки</w>": 8380,
      "хлеб": 8381,
      "доказательство</w>": 8382,
      "сохранить</w>": 8383,
      "существование</w>": 8384,
      "аллее</w>": 8385,
      "необходимости</w>": 8386,
      "подробности</w>": 8387,
      "компания</w>": 8388,
      "милосерди": 8389,
      "удобно</w>": 8390,
      "воспоминаний</w>": 8391,
      "шрамами</w>": 8392,
      "проблемы</w>": 8393,
      "разговаривал</w>": 8394,
      "идиот</w>": 8395,
      "полагалось</w>": 8396,
      "рабыня</w>": 8397,
      "вопли</w>": 8398,
      "прогресс</w>": 8399,
      "примеру</w>": 8400,
      "пикса</w>": 8401,
      "убьют</w>": 8402,
      "гнезда</w>": 8403,
      "столкнулись</w>": 8404,
      "последова": 8405,
      "поклоняются</w>": 8406,
      "закончил</w>": 8407,
      "беддиктом</w>": 8408,
      "появлялись</w>": 8409,
      "богатство</w>": 8410,
      "горизонта</w>": 8411,
      "воскликнула</w>": 8412,
      "постараюсь</w>": 8413,
      "непроница": 8414,
      "лежало</w>": 8415,
      "девичий</w>": 8416,
      "разноцвет": 8417,
      "силуэты</w>": 8418,
      "собеседника</w>": 8419,
      "зловеще</w>": 8420,
      "поглядел</w>": 8421,
      "показалась</w>": 8422,
      "коснулась</w>": 8423,
      "неделю</w>": 8424,
      "занимался</w>": 8425,
      "дождеви": 8426,
      "бешено</w>": 8427,
      "самих</w>": 8428,
      "перчатке</w>": 8429,
      "долгое</w>": 8430,
      "склада</w>": 8431,
      "ступенькам</w>": 8432,
      "поступок</w>": 8433,
      "подумав</w>": 8434,
      "руины</w>": 8435,
      "пристани</w>": 8436,
      "отрывая</w>": 8437,
      "безопа": 8438,
      "традицио": 8439,
      "швырнул</w>": 8440,
      "элейнт</w>": 8441,
      "растет</w>": 8442,
      "выяснить</w>": 8443,
      "выяснилось</w>": 8444,
      "скоростью</w>": 8445,
      "творили</w>": 8446,
      "праздник</w>": 8447,
      "халаг</w>": 8448,
      "халага</w>": 8449,
      "напиток</w>": 8450,
      "обломки</w>": 8451,
      "территорию</w>": 8452,
      "большое</w>": 8453,
      "большому</w>": 8454,
      "официальных</w>": 8455,
      "звезды</w>": 8456,
      "сородичи</w>": 8457,
      "соплеменников</w>": 8458,
      "титул</w>": 8459,
      "отомстить</w>": 8460,
      "капюшоне</w>": 8461,
      "двенадцать</w>": 8462,
      "ужин</w>": 8463,
      "нырнул</w>": 8464,
[...]
